{
  "version": "1.0",
  "truncation": null,
  "padding": null,
  "added_tokens": [
    {
      "id": 0,
      "content": "[PAD]",
      "single_word": false,
      "lstrip": false,
      "rstrip": false,
      "normalized": false,
      "special": true
    },
    {
      "id": 1,
      "content": "[UNK]",
      "single_word": false,
      "lstrip": false,
      "rstrip": false,
      "normalized": false,
      "special": true
    },
    {
      "id": 2,
      "content": "[CLS]",
      "single_word": false,
      "lstrip": false,
      "rstrip": false,
      "normalized": false,
      "special": true
    },
    {
      "id": 3,
      "content": "[SEP]",
      "single_word": false,
      "lstrip": false,
      "rstrip": false,
      "normalized": false,
      "special": true
    },
    {
      "id": 4,
      "content": "[MASK]",
      "single_word": false,
      "lstrip": false,
      "rstrip": false,
      "normalized": false,
      "special": true
    }
  ],
  "normalizer": null,
  "pre_tokenizer": {
    "type": "Whitespace"
  },
  "post_processor": null,
  "decoder": null,
  "model": {
    "type": "WordPiece",
    "unk_token": "[UNK]",
    "continuing_subword_prefix": "##",
    "max_input_chars_per_word": 100,
    "vocab": {
      "[PAD]": 0,
      "[UNK]": 1,
      "[CLS]": 2,
      "[SEP]": 3,
      "[MASK]": 4,
      "!": 5,
      "\"": 6,
      "#": 7,
      "$": 8,
      "%": 9,
      "&": 10,
      "'": 11,
      "(": 12,
      ")": 13,
      "*": 14,
      "+": 15,
      ",": 16,
      "-": 17,
      ".": 18,
      "/": 19,
      "0": 20,
      "1": 21,
      "2": 22,
      "3": 23,
      "4": 24,
      "5": 25,
      "6": 26,
      "7": 27,
      "8": 28,
      "9": 29,
      ":": 30,
      ";": 31,
      "<": 32,
      "=": 33,
      ">": 34,
      "?": 35,
      "@": 36,
      "A": 37,
      "B": 38,
      "C": 39,
      "D": 40,
      "E": 41,
      "F": 42,
      "G": 43,
      "H": 44,
      "I": 45,
      "J": 46,
      "K": 47,
      "L": 48,
      "M": 49,
      "N": 50,
      "O": 51,
      "P": 52,
      "Q": 53,
      "R": 54,
      "S": 55,
      "T": 56,
      "U": 57,
      "V": 58,
      "W": 59,
      "X": 60,
      "Y": 61,
      "Z": 62,
      "[": 63,
      "]": 64,
      "^": 65,
      "a": 66,
      "b": 67,
      "c": 68,
      "d": 69,
      "e": 70,
      "f": 71,
      "g": 72,
      "h": 73,
      "i": 74,
      "j": 75,
      "k": 76,
      "l": 77,
      "m": 78,
      "n": 79,
      "o": 80,
      "p": 81,
      "q": 82,
      "r": 83,
      "s": 84,
      "t": 85,
      "u": 86,
      "v": 87,
      "w": 88,
      "x": 89,
      "y": 90,
      "z": 91,
      "~": 92,
      "²": 93,
      "³": 94,
      "·": 95,
      "×": 96,
      "÷": 97,
      "Σ": 98,
      "α": 99,
      "β": 100,
      "γ": 101,
      "μ": 102,
      "–": 103,
      "’": 104,
      "“": 105,
      "”": 106,
      "•": 107,
      "…": 108,
      "‧": 109,
      "ⁿ": 110,
      "₩": 111,
      "℃": 112,
      "Ⅰ": 113,
      "Ⅱ": 114,
      "Ⅲ": 115,
      "Ⅳ": 116,
      "Ⅴ": 117,
      "ⅴ": 118,
      "→": 119,
      "∙": 120,
      "①": 121,
      "②": 122,
      "③": 123,
      "④": 124,
      "⑤": 125,
      "⑥": 126,
      "⑦": 127,
      "□": 128,
      "▲": 129,
      "△": 130,
      "▶": 131,
      "◆": 132,
      "○": 133,
      "◎": 134,
      "●": 135,
      "☐": 136,
      "✓": 137,
      "⬅": 138,
      "『": 139,
      "』": 140,
      "ㄷ": 141,
      "ㄹ": 142,
      "ㅇ": 143,
      "ㅏ": 144,
      "ㅔ": 145,
      "ㅜ": 146,
      "㈜": 147,
      "㎛": 148,
      "㎡": 149,
      "他": 150,
      "價": 151,
      "全": 152,
      "制": 153,
      "動": 154,
      "卽": 155,
      "取": 156,
      "可": 157,
      "工": 158,
      "得": 159,
      "御": 160,
      "徹": 161,
      "數": 162,
      "新": 163,
      "札": 164,
      "案": 165,
      "標": 166,
      "母": 167,
      "氣": 168,
      "物": 169,
      "率": 170,
      "現": 171,
      "登": 172,
      "直": 173,
      "社": 174,
      "稅": 175,
      "稼": 176,
      "積": 177,
      "章": 178,
      "舍": 179,
      "錄": 180,
      "驛": 181,
      "가": 182,
      "각": 183,
      "간": 184,
      "갈": 185,
      "감": 186,
      "갑": 187,
      "값": 188,
      "갔": 189,
      "강": 190,
      "갖": 191,
      "같": 192,
      "개": 193,
      "객": 194,
      "갭": 195,
      "갯": 196,
      "갱": 197,
      "거": 198,
      "걱": 199,
      "건": 200,
      "걷": 201,
      "걸": 202,
      "검": 203,
      "겁": 204,
      "것": 205,
      "게": 206,
      "겐": 207,
      "겔": 208,
      "겟": 209,
      "겠": 210,
      "겨": 211,
      "격": 212,
      "겪": 213,
      "견": 214,
      "결": 215,
      "겸": 216,
      "겹": 217,
      "겼": 218,
      "경": 219,
      "곁": 220,
      "계": 221,
      "고": 222,
      "곡": 223,
      "곤": 224,
      "곧": 225,
      "골": 226,
      "곰": 227,
      "곱": 228,
      "곳": 229,
      "공": 230,
      "과": 231,
      "곽": 232,
      "관": 233,
      "괄": 234,
      "광": 235,
      "괴": 236,
      "교": 237,
      "구": 238,
      "국": 239,
      "군": 240,
      "굳": 241,
      "굴": 242,
      "굵": 243,
      "굽": 244,
      "궁": 245,
      "권": 246,
      "귀": 247,
      "규": 248,
      "균": 249,
      "그": 250,
      "극": 251,
      "근": 252,
      "글": 253,
      "금": 254,
      "급": 255,
      "긋": 256,
      "긍": 257,
      "기": 258,
      "긴": 259,
      "길": 260,
      "김": 261,
      "깃": 262,
      "깊": 263,
      "까": 264,
      "깎": 265,
      "깔": 266,
      "깝": 267,
      "깨": 268,
      "깬": 269,
      "꺼": 270,
      "꺾": 271,
      "껍": 272,
      "껏": 273,
      "껑": 274,
      "께": 275,
      "꼈": 276,
      "꼬": 277,
      "꼭": 278,
      "꼴": 279,
      "꼽": 280,
      "꽂": 281,
      "꽃": 282,
      "꾀": 283,
      "꾸": 284,
      "꾼": 285,
      "꿀": 286,
      "꿈": 287,
      "꿔": 288,
      "뀌": 289,
      "끄": 290,
      "끈": 291,
      "끊": 292,
      "끌": 293,
      "끓": 294,
      "끔": 295,
      "끗": 296,
      "끝": 297,
      "끼": 298,
      "낀": 299,
      "낄": 300,
      "낌": 301,
      "나": 302,
      "낙": 303,
      "낚": 304,
      "난": 305,
      "날": 306,
      "낡": 307,
      "남": 308,
      "납": 309,
      "났": 310,
      "낭": 311,
      "낮": 312,
      "낳": 313,
      "내": 314,
      "낸": 315,
      "낼": 316,
      "냄": 317,
      "냅": 318,
      "냈": 319,
      "냉": 320,
      "냐": 321,
      "냥": 322,
      "너": 323,
      "널": 324,
      "넓": 325,
      "넘": 326,
      "넣": 327,
      "네": 328,
      "넥": 329,
      "넬": 330,
      "넵": 331,
      "넷": 332,
      "녀": 333,
      "녁": 334,
      "년": 335,
      "념": 336,
      "노": 337,
      "녹": 338,
      "논": 339,
      "놀": 340,
      "농": 341,
      "높": 342,
      "놓": 343,
      "뇌": 344,
      "뇽": 345,
      "누": 346,
      "눈": 347,
      "눌": 348,
      "눔": 349,
      "눕": 350,
      "눠": 351,
      "뉘": 352,
      "뉜": 353,
      "뉨": 354,
      "뉩": 355,
      "뉴": 356,
      "느": 357,
      "늑": 358,
      "는": 359,
      "늘": 360,
      "능": 361,
      "늦": 362,
      "늬": 363,
      "니": 364,
      "닉": 365,
      "닌": 366,
      "닐": 367,
      "님": 368,
      "닛": 369,
      "닝": 370,
      "다": 371,
      "닥": 372,
      "단": 373,
      "닫": 374,
      "달": 375,
      "담": 376,
      "답": 377,
      "닷": 378,
      "당": 379,
      "대": 380,
      "댁": 381,
      "댄": 382,
      "댐": 383,
      "댓": 384,
      "더": 385,
      "덕": 386,
      "던": 387,
      "덛": 388,
      "덜": 389,
      "덞": 390,
      "덟": 391,
      "덧": 392,
      "덩": 393,
      "덮": 394,
      "데": 395,
      "덱": 396,
      "덴": 397,
      "델": 398,
      "도": 399,
      "독": 400,
      "돈": 401,
      "돋": 402,
      "돌": 403,
      "돔": 404,
      "돕": 405,
      "동": 406,
      "돼": 407,
      "됐": 408,
      "되": 409,
      "된": 410,
      "될": 411,
      "됨": 412,
      "됩": 413,
      "됴": 414,
      "두": 415,
      "둑": 416,
      "둔": 417,
      "둘": 418,
      "둡": 419,
      "둥": 420,
      "둬": 421,
      "뒀": 422,
      "뒤": 423,
      "뒷": 424,
      "듀": 425,
      "듈": 426,
      "듐": 427,
      "드": 428,
      "득": 429,
      "든": 430,
      "듣": 431,
      "들": 432,
      "듦": 433,
      "듭": 434,
      "듯": 435,
      "등": 436,
      "듸": 437,
      "디": 438,
      "딕": 439,
      "딘": 440,
      "딛": 441,
      "딜": 442,
      "딩": 443,
      "딪": 444,
      "따": 445,
      "딸": 446,
      "땀": 447,
      "땅": 448,
      "때": 449,
      "땜": 450,
      "떠": 451,
      "떤": 452,
      "떨": 453,
      "떻": 454,
      "떼": 455,
      "또": 456,
      "똑": 457,
      "뚜": 458,
      "뚝": 459,
      "뚫": 460,
      "뛰": 461,
      "뜨": 462,
      "뜯": 463,
      "뜰": 464,
      "뜻": 465,
      "띄": 466,
      "띌": 467,
      "띕": 468,
      "띠": 469,
      "라": 470,
      "락": 471,
      "란": 472,
      "랄": 473,
      "람": 474,
      "랐": 475,
      "랑": 476,
      "래": 477,
      "랙": 478,
      "랜": 479,
      "램": 480,
      "랩": 481,
      "랫": 482,
      "랭": 483,
      "랴": 484,
      "략": 485,
      "럄": 486,
      "량": 487,
      "러": 488,
      "럭": 489,
      "런": 490,
      "럴": 491,
      "럼": 492,
      "럽": 493,
      "렀": 494,
      "렇": 495,
      "레": 496,
      "렉": 497,
      "렌": 498,
      "렙": 499,
      "렛": 500,
      "려": 501,
      "력": 502,
      "련": 503,
      "렬": 504,
      "렴": 505,
      "렵": 506,
      "렷": 507,
      "렸": 508,
      "령": 509,
      "례": 510,
      "로": 511,
      "록": 512,
      "론": 513,
      "롤": 514,
      "롭": 515,
      "롯": 516,
      "뢰": 517,
      "뢴": 518,
      "료": 519,
      "루": 520,
      "룩": 521,
      "룬": 522,
      "룰": 523,
      "룸": 524,
      "룹": 525,
      "뤄": 526,
      "뤘": 527,
      "류": 528,
      "륙": 529,
      "륜": 530,
      "률": 531,
      "륨": 532,
      "륭": 533,
      "르": 534,
      "른": 535,
      "를": 536,
      "름": 537,
      "릅": 538,
      "릇": 539,
      "리": 540,
      "릭": 541,
      "린": 542,
      "릴": 543,
      "림": 544,
      "립": 545,
      "릿": 546,
      "링": 547,
      "마": 548,
      "막": 549,
      "만": 550,
      "많": 551,
      "말": 552,
      "맑": 553,
      "맘": 554,
      "맛": 555,
      "망": 556,
      "맞": 557,
      "맟": 558,
      "맡": 559,
      "매": 560,
      "맥": 561,
      "맨": 562,
      "맵": 563,
      "맷": 564,
      "맹": 565,
      "맺": 566,
      "먕": 567,
      "머": 568,
      "먹": 569,
      "먼": 570,
      "멀": 571,
      "멈": 572,
      "멋": 573,
      "멍": 574,
      "메": 575,
      "멘": 576,
      "멜": 577,
      "멤": 578,
      "멧": 579,
      "며": 580,
      "멱": 581,
      "면": 582,
      "멸": 583,
      "명": 584,
      "몇": 585,
      "몋": 586,
      "모": 587,
      "목": 588,
      "몫": 589,
      "몬": 590,
      "몰": 591,
      "몸": 592,
      "못": 593,
      "몽": 594,
      "묘": 595,
      "묙": 596,
      "무": 597,
      "묵": 598,
      "묶": 599,
      "문": 600,
      "묻": 601,
      "물": 602,
      "뭎": 603,
      "뭔": 604,
      "뮈": 605,
      "뮤": 606,
      "뮬": 607,
      "므": 608,
      "미": 609,
      "믹": 610,
      "민": 611,
      "믿": 612,
      "밀": 613,
      "밍": 614,
      "및": 615,
      "밑": 616,
      "바": 617,
      "박": 618,
      "밖": 619,
      "반": 620,
      "받": 621,
      "발": 622,
      "밝": 623,
      "밟": 624,
      "밤": 625,
      "밥": 626,
      "방": 627,
      "밭": 628,
      "배": 629,
      "백": 630,
      "밴": 631,
      "밸": 632,
      "뱃": 633,
      "뱅": 634,
      "버": 635,
      "벅": 636,
      "번": 637,
      "벌": 638,
      "범": 639,
      "법": 640,
      "벗": 641,
      "베": 642,
      "벡": 643,
      "벤": 644,
      "벨": 645,
      "벳": 646,
      "벷": 647,
      "벼": 648,
      "벽": 649,
      "변": 650,
      "별": 651,
      "병": 652,
      "보": 653,
      "복": 654,
      "본": 655,
      "볼": 656,
      "봄": 657,
      "봅": 658,
      "봇": 659,
      "봉": 660,
      "봐": 661,
      "부": 662,
      "북": 663,
      "분": 664,
      "불": 665,
      "붉": 666,
      "붓": 667,
      "붕": 668,
      "붙": 669,
      "뷔": 670,
      "뷰": 671,
      "브": 672,
      "븐": 673,
      "블": 674,
      "비": 675,
      "빈": 676,
      "빌": 677,
      "빗": 678,
      "빙": 679,
      "빛": 680,
      "빠": 681,
      "빨": 682,
      "빵": 683,
      "빼": 684,
      "뺀": 685,
      "뻗": 686,
      "뽑": 687,
      "뾰": 688,
      "뿌": 689,
      "뿐": 690,
      "뿔": 691,
      "쁘": 692,
      "쁜": 693,
      "쁠": 694,
      "쁨": 695,
      "사": 696,
      "삭": 697,
      "산": 698,
      "살": 699,
      "삶": 700,
      "삼": 701,
      "삽": 702,
      "삿": 703,
      "상": 704,
      "새": 705,
      "색": 706,
      "샌": 707,
      "샐": 708,
      "샘": 709,
      "생": 710,
      "샤": 711,
      "샵": 712,
      "서": 713,
      "석": 714,
      "섞": 715,
      "선": 716,
      "설": 717,
      "섬": 718,
      "섭": 719,
      "섯": 720,
      "섰": 721,
      "성": 722,
      "세": 723,
      "섹": 724,
      "센": 725,
      "셀": 726,
      "셈": 727,
      "셉": 728,
      "셋": 729,
      "셔": 730,
      "션": 731,
      "셜": 732,
      "소": 733,
      "속": 734,
      "손": 735,
      "솔": 736,
      "솟": 737,
      "송": 738,
      "솥": 739,
      "쇄": 740,
      "쇠": 741,
      "쇼": 742,
      "숍": 743,
      "수": 744,
      "숙": 745,
      "순": 746,
      "숟": 747,
      "술": 748,
      "숨": 749,
      "숫": 750,
      "숯": 751,
      "숲": 752,
      "쉐": 753,
      "쉬": 754,
      "쉽": 755,
      "슈": 756,
      "스": 757,
      "슨": 758,
      "슬": 759,
      "슴": 760,
      "습": 761,
      "슷": 762,
      "승": 763,
      "시": 764,
      "식": 765,
      "신": 766,
      "실": 767,
      "심": 768,
      "십": 769,
      "싱": 770,
      "싶": 771,
      "싸": 772,
      "싼": 773,
      "쌀": 774,
      "쌌": 775,
      "쌍": 776,
      "쌓": 777,
      "써": 778,
      "썬": 779,
      "썹": 780,
      "썼": 781,
      "쏟": 782,
      "쓰": 783,
      "쓴": 784,
      "쓸": 785,
      "씀": 786,
      "씨": 787,
      "씩": 788,
      "씬": 789,
      "씻": 790,
      "아": 791,
      "악": 792,
      "안": 793,
      "앉": 794,
      "않": 795,
      "알": 796,
      "앓": 797,
      "암": 798,
      "압": 799,
      "았": 800,
      "앙": 801,
      "앞": 802,
      "애": 803,
      "액": 804,
      "앤": 805,
      "앨": 806,
      "앵": 807,
      "야": 808,
      "약": 809,
      "얀": 810,
      "얄": 811,
      "얇": 812,
      "양": 813,
      "얘": 814,
      "어": 815,
      "억": 816,
      "언": 817,
      "얻": 818,
      "얼": 819,
      "얽": 820,
      "엄": 821,
      "업": 822,
      "없": 823,
      "엇": 824,
      "었": 825,
      "엉": 826,
      "에": 827,
      "엑": 828,
      "엔": 829,
      "엘": 830,
      "엠": 831,
      "엣": 832,
      "엥": 833,
      "여": 834,
      "역": 835,
      "연": 836,
      "열": 837,
      "염": 838,
      "엽": 839,
      "엿": 840,
      "였": 841,
      "영": 842,
      "옅": 843,
      "옆": 844,
      "예": 845,
      "옙": 846,
      "옛": 847,
      "오": 848,
      "옥": 849,
      "온": 850,
      "올": 851,
      "옮": 852,
      "옴": 853,
      "옵": 854,
      "옷": 855,
      "옹": 856,
      "와": 857,
      "완": 858,
      "왈": 859,
      "왔": 860,
      "왕": 861,
      "왜": 862,
      "외": 863,
      "왼": 864,
      "요": 865,
      "욕": 866,
      "용": 867,
      "우": 868,
      "욱": 869,
      "운": 870,
      "울": 871,
      "움": 872,
      "웁": 873,
      "웃": 874,
      "웅": 875,
      "워": 876,
      "웍": 877,
      "원": 878,
      "월": 879,
      "웠": 880,
      "웨": 881,
      "웰": 882,
      "웹": 883,
      "위": 884,
      "윈": 885,
      "윌": 886,
      "윗": 887,
      "윙": 888,
      "유": 889,
      "육": 890,
      "윤": 891,
      "율": 892,
      "융": 893,
      "으": 894,
      "은": 895,
      "을": 896,
      "음": 897,
      "읍": 898,
      "응": 899,
      "의": 900,
      "이": 901,
      "익": 902,
      "인": 903,
      "일": 904,
      "읽": 905,
      "잃": 906,
      "임": 907,
      "입": 908,
      "잇": 909,
      "있": 910,
      "잉": 911,
      "잎": 912,
      "자": 913,
      "작": 914,
      "잔": 915,
      "잘": 916,
      "잠": 917,
      "잡": 918,
      "잣": 919,
      "장": 920,
      "재": 921,
      "잭": 922,
      "잼": 923,
      "쟁": 924,
      "쟝": 925,
      "저": 926,
      "적": 927,
      "전": 928,
      "절": 929,
      "젊": 930,
      "점": 931,
      "접": 932,
      "젓": 933,
      "정": 934,
      "젖": 935,
      "제": 936,
      "젝": 937,
      "젠": 938,
      "젤": 939,
      "져": 940,
      "젼": 941,
      "졌": 942,
      "조": 943,
      "족": 944,
      "존": 945,
      "졸": 946,
      "좀": 947,
      "좁": 948,
      "종": 949,
      "좋": 950,
      "좌": 951,
      "죄": 952,
      "주": 953,
      "죽": 954,
      "준": 955,
      "줄": 956,
      "줌": 957,
      "줍": 958,
      "중": 959,
      "줘": 960,
      "줬": 961,
      "쥐": 962,
      "쥔": 963,
      "즈": 964,
      "즉": 965,
      "즌": 966,
      "즐": 967,
      "즘": 968,
      "증": 969,
      "지": 970,
      "직": 971,
      "진": 972,
      "질": 973,
      "짐": 974,
      "집": 975,
      "짓": 976,
      "징": 977,
      "짖": 978,
      "짙": 979,
      "짜": 980,
      "짝": 981,
      "짧": 982,
      "짱": 983,
      "째": 984,
      "쨍": 985,
      "쨰": 986,
      "쩌": 987,
      "쪼": 988,
      "쪽": 989,
      "쫓": 990,
      "쯤": 991,
      "찌": 992,
      "찍": 993,
      "찡": 994,
      "찢": 995,
      "차": 996,
      "착": 997,
      "찬": 998,
      "찮": 999,
      "찰": 1000,
      "참": 1001,
      "창": 1002,
      "찾": 1003,
      "채": 1004,
      "책": 1005,
      "챕": 1006,
      "챠": 1007,
      "처": 1008,
      "척": 1009,
      "천": 1010,
      "철": 1011,
      "첨": 1012,
      "첩": 1013,
      "첫": 1014,
      "청": 1015,
      "체": 1016,
      "쳐": 1017,
      "쳑": 1018,
      "쳤": 1019,
      "쳥": 1020,
      "초": 1021,
      "촉": 1022,
      "촌": 1023,
      "총": 1024,
      "촬": 1025,
      "최": 1026,
      "추": 1027,
      "축": 1028,
      "춘": 1029,
      "출": 1030,
      "춤": 1031,
      "충": 1032,
      "춰": 1033,
      "췌": 1034,
      "취": 1035,
      "츄": 1036,
      "츠": 1037,
      "측": 1038,
      "층": 1039,
      "치": 1040,
      "칙": 1041,
      "친": 1042,
      "칠": 1043,
      "침": 1044,
      "칩": 1045,
      "칫": 1046,
      "칭": 1047,
      "카": 1048,
      "칵": 1049,
      "칸": 1050,
      "칼": 1051,
      "캅": 1052,
      "캐": 1053,
      "캔": 1054,
      "캘": 1055,
      "캠": 1056,
      "캡": 1057,
      "커": 1058,
      "컨": 1059,
      "컬": 1060,
      "컴": 1061,
      "컵": 1062,
      "컷": 1063,
      "컸": 1064,
      "케": 1065,
      "켈": 1066,
      "켓": 1067,
      "켜": 1068,
      "켰": 1069,
      "코": 1070,
      "콘": 1071,
      "콜": 1072,
      "콤": 1073,
      "콥": 1074,
      "콧": 1075,
      "콩": 1076,
      "쾌": 1077,
      "쿄": 1078,
      "쿠": 1079,
      "쿤": 1080,
      "쿨": 1081,
      "퀄": 1082,
      "퀴": 1083,
      "큐": 1084,
      "큘": 1085,
      "크": 1086,
      "큰": 1087,
      "클": 1088,
      "큼": 1089,
      "큽": 1090,
      "키": 1091,
      "킨": 1092,
      "킬": 1093,
      "킴": 1094,
      "킵": 1095,
      "킷": 1096,
      "킹": 1097,
      "타": 1098,
      "탁": 1099,
      "탄": 1100,
      "탈": 1101,
      "탐": 1102,
      "탑": 1103,
      "탓": 1104,
      "탕": 1105,
      "태": 1106,
      "택": 1107,
      "탠": 1108,
      "탤": 1109,
      "탱": 1110,
      "터": 1111,
      "턴": 1112,
      "털": 1113,
      "테": 1114,
      "텍": 1115,
      "텐": 1116,
      "텔": 1117,
      "템": 1118,
      "텝": 1119,
      "토": 1120,
      "톤": 1121,
      "톰": 1122,
      "톱": 1123,
      "통": 1124,
      "퇴": 1125,
      "투": 1126,
      "툴": 1127,
      "툼": 1128,
      "튜": 1129,
      "트": 1130,
      "특": 1131,
      "튼": 1132,
      "틀": 1133,
      "틍": 1134,
      "티": 1135,
      "틱": 1136,
      "틴": 1137,
      "틸": 1138,
      "팀": 1139,
      "팅": 1140,
      "파": 1141,
      "팍": 1142,
      "판": 1143,
      "팔": 1144,
      "팜": 1145,
      "팝": 1146,
      "팡": 1147,
      "팥": 1148,
      "패": 1149,
      "팩": 1150,
      "팬": 1151,
      "팻": 1152,
      "팽": 1153,
      "퍼": 1154,
      "펀": 1155,
      "펌": 1156,
      "페": 1157,
      "펜": 1158,
      "펫": 1159,
      "펴": 1160,
      "편": 1161,
      "펼": 1162,
      "평": 1163,
      "폐": 1164,
      "포": 1165,
      "폭": 1166,
      "폰": 1167,
      "폴": 1168,
      "폼": 1169,
      "표": 1170,
      "푸": 1171,
      "푼": 1172,
      "풀": 1173,
      "품": 1174,
      "풋": 1175,
      "풍": 1176,
      "퓨": 1177,
      "프": 1178,
      "픈": 1179,
      "플": 1180,
      "픔": 1181,
      "피": 1182,
      "픽": 1183,
      "핀": 1184,
      "필": 1185,
      "핍": 1186,
      "핏": 1187,
      "핑": 1188,
      "하": 1189,
      "학": 1190,
      "한": 1191,
      "할": 1192,
      "함": 1193,
      "합": 1194,
      "항": 1195,
      "해": 1196,
      "핵": 1197,
      "핸": 1198,
      "햄": 1199,
      "햇": 1200,
      "했": 1201,
      "행": 1202,
      "햔": 1203,
      "향": 1204,
      "허": 1205,
      "헌": 1206,
      "험": 1207,
      "헛": 1208,
      "헤": 1209,
      "헨": 1210,
      "헬": 1211,
      "혀": 1212,
      "혁": 1213,
      "현": 1214,
      "혈": 1215,
      "혐": 1216,
      "협": 1217,
      "혔": 1218,
      "형": 1219,
      "혜": 1220,
      "호": 1221,
      "혹": 1222,
      "혼": 1223,
      "홀": 1224,
      "홈": 1225,
      "홉": 1226,
      "홍": 1227,
      "화": 1228,
      "확": 1229,
      "환": 1230,
      "활": 1231,
      "황": 1232,
      "회": 1233,
      "획": 1234,
      "횟": 1235,
      "횡": 1236,
      "효": 1237,
      "후": 1238,
      "훈": 1239,
      "훌": 1240,
      "훨": 1241,
      "훼": 1242,
      "휘": 1243,
      "휴": 1244,
      "흉": 1245,
      "흐": 1246,
      "흑": 1247,
      "흔": 1248,
      "흘": 1249,
      "흡": 1250,
      "흥": 1251,
      "흩": 1252,
      "희": 1253,
      "흰": 1254,
      "히": 1255,
      "힌": 1256,
      "힘": 1257,
      "﹒": 1258,
      "￦": 1259,
      "##7": 1260,
      "##8": 1261,
      "##간": 1262,
      "##장": 1263,
      "##시": 1264,
      "##키": 1265,
      "##는": 1266,
      "##습": 1267,
      "##과": 1268,
      "##n": 1269,
      "##t": 1270,
      "##e": 1271,
      "##g": 1272,
      "##r": 1273,
      "##a": 1274,
      "##i": 1275,
      "##o": 1276,
      "##텐": 1277,
      "##츠": 1278,
      "##업": 1279,
      "##의": 1280,
      "##자": 1281,
      "##사": 1282,
      "##례": 1283,
      "##이": 1284,
      "##식": 1285,
      "##열": 1286,
      "##된": 1287,
      "##출": 1288,
      "##등": 1289,
      "##재": 1290,
      "##능": 1291,
      "##력": 1292,
      "##검": 1293,
      "##기": 1294,
      "##판": 1295,
      "##에": 1296,
      "##적": 1297,
      "##l": 1298,
      "##v": 1299,
      "##d": 1300,
      "##9": 1301,
      "##2": 1302,
      "##천": 1303,
      "##백": 1304,
      "##만": 1305,
      "##원": 1306,
      "##완": 1307,
      "##한": 1308,
      "##다": 1309,
      "##조": 1310,
      "##직": 1311,
      "##급": 1312,
      "##여": 1313,
      "##충": 1314,
      "##당": 1315,
      "##금": 1316,
      "##은": 1317,
      "##색": 1318,
      "##센": 1319,
      "##티": 1320,
      "##브": 1321,
      "##용": 1322,
      "##입": 1323,
      "##니": 1324,
      "##었": 1325,
      "##획": 1326,
      "##되": 1327,
      "##어": 1328,
      "##화": 1329,
      "##뇌": 1330,
      "##동": 1331,
      "##형": 1332,
      "##무": 1333,
      "##신": 1334,
      "##층": 1335,
      "##을": 1336,
      "##증": 1337,
      "##비": 1338,
      "##관": 1339,
      "##익": 1340,
      "##성": 1341,
      "##망": 1342,
      "##았": 1343,
      "##지": 1344,
      "##토": 1345,
      "##게": 1346,
      "##으": 1347,
      "##로": 1348,
      "##4": 1349,
      "##인": 1350,
      "##하": 1351,
      "##케": 1352,
      "##팅": 1353,
      "##정": 1354,
      "##보": 1355,
      "##스": 1356,
      "##템": 1357,
      "##응": 1358,
      "##합": 1359,
      "##도": 1360,
      "##0": 1361,
      "##령": 1362,
      "##복": 1363,
      "##편": 1364,
      "##산": 1365,
      "##예": 1366,
      "##일": 1367,
      "##영": 1368,
      "##전": 1369,
      "##략": 1370,
      "##와": 1371,
      "##G": 1372,
      "##가": 1373,
      "##모": 1374,
      "##b": 1375,
      "##통": 1376,
      "##언": 1377,
      "##고": 1378,
      "##방": 1379,
      "##명": 1380,
      "##할": 1381,
      "##후": 1382,
      "##임": 1383,
      "##강": 1384,
      "##닛": 1385,
      "##리": 1386,
      "##치": 1387,
      "##서": 1388,
      "##부": 1389,
      "##터": 1390,
      "##u": 1391,
      "##요": 1392,
      "##6": 1393,
      "##억": 1394,
      "##념": 1395,
      "##율": 1396,
      "##더": 1397,
      "##제": 1398,
      "##품": 1399,
      "##틀": 1400,
      "##러": 1401,
      "##책": 1402,
      "##아": 1403,
      "##T": 1404,
      "##V": 1405,
      "##점": 1406,
      "##들": 1407,
      "##박": 1408,
      "##면": 1409,
      "##였": 1410,
      "##며": 1411,
      "##s": 1412,
      "##법": 1413,
      "##위": 1414,
      "##약": 1415,
      "##폭": 1416,
      "##민": 1417,
      "##소": 1418,
      "##득": 1419,
      "##래": 1420,
      "##든": 1421,
      "##했": 1422,
      "##문": 1423,
      "##체": 1424,
      "##우": 1425,
      "##처": 1426,
      "##3": 1427,
      "##년": 1428,
      "##술": 1429,
      "##L": 1430,
      "##A": 1431,
      "##S": 1432,
      "##각": 1433,
      "##페": 1434,
      "##환": 1435,
      "##킬": 1436,
      "##분": 1437,
      "##료": 1438,
      "##세": 1439,
      "##육": 1440,
      "##설": 1441,
      "##발": 1442,
      "##w": 1443,
      "##현": 1444,
      "##나": 1445,
      "##최": 1446,
      "##피": 1447,
      "##찰": 1448,
      "##대": 1449,
      "##상": 1450,
      "##준": 1451,
      "##귀": 1452,
      "##거": 1453,
      "##국": 1454,
      "##행": 1455,
      "##단": 1456,
      "##계": 1457,
      "##라": 1458,
      "##딘": 1459,
      "##구": 1460,
      "##랑": 1461,
      "##럽": 1462,
      "##해": 1463,
      "##를": 1464,
      "##객": 1465,
      "##족": 1466,
      "##달": 1467,
      "##특": 1468,
      "##징": 1469,
      "##운": 1470,
      "##될": 1471,
      "##란": 1472,
      "##디": 1473,
      "##오": 1474,
      "##Q": 1475,
      "##M": 1476,
      "##축": 1477,
      "##y": 1478,
      "##m": 1479,
      "##O": 1480,
      "##P": 1481,
      "##쟁": 1482,
      "##실": 1483,
      "##건": 1484,
      "##선": 1485,
      "##봉": 1486,
      "##수": 1487,
      "##차": 1488,
      "##심": 1489,
      "##률": 1490,
      "##생": 1491,
      "##내": 1492,
      "##외": 1493,
      "##별": 1494,
      "##확": 1495,
      "##히": 1496,
      "##류": 1497,
      "##굴": 1498,
      "##타": 1499,
      "##K": 1500,
      "##미": 1501,
      "##포": 1502,
      "##얼": 1503,
      "##크": 1504,
      "##샵": 1505,
      "##(": 1506,
      "##E": 1507,
      "##르": 1508,
      "##테": 1509,
      "##회": 1510,
      "##안": 1511,
      "##태": 1512,
      "##매": 1513,
      "##녀": 1514,
      "##석": 1515,
      "##초": 1516,
      "##평": 1517,
      "##함": 1518,
      "##써": 1519,
      "##델": 1520,
      "##택": 1521,
      "##공": 1522,
      "##락": 1523,
      "##교": 1524,
      "##효": 1525,
      "##5": 1526,
      "##까": 1527,
      "##글": 1528,
      "##받": 1529,
      "##음": 1530,
      "##R": 1531,
      "##J": 1532,
      "##C": 1533,
      "##릴": 1534,
      "##넷": 1535,
      "##격": 1536,
      "##그": 1537,
      "##램": 1538,
      "##먕": 1539,
      "##버": 1540,
      "##탕": 1541,
      "##p": 1542,
      "##송": 1543,
      "##반": 1544,
      "##트": 1545,
      "##멸": 1546,
      "##1": 1547,
      "##양": 1548,
      "##져": 1549,
      "##액": 1550,
      "##개": 1551,
      "##탁": 1552,
      "##f": 1553,
      "##c": 1554,
      "##네": 1555,
      "##접": 1556,
      "##퇴": 1557,
      "##승": 1558,
      "##줌": 1559,
      "##향": 1560,
      "##주": 1561,
      "##작": 1562,
      "##렴": 1563,
      "##마": 1564,
      "##활": 1565,
      "##근": 1566,
      "##름": 1567,
      "##표": 1568,
      "##경": 1569,
      "##I": 1570,
      "##질": 1571,
      "##누": 1572,
      "##순": 1573,
      "##결": 1574,
      "##진": 1575,
      "##굽": 1576,
      "##힘": 1577,
      "##량": 1578,
      "##즈": 1579,
      "##짖": 1580,
      "##야": 1581,
      "##및": 1582,
      "##림": 1583,
      "##유": 1584,
      "##퓨": 1585,
      "##론": 1586,
      "##쪽": 1587,
      "##슨": 1588,
      "##립": 1589,
      "##군": 1590,
      "##본": 1591,
      "##칙": 1592,
      "##럭": 1593,
      "##록": 1594,
      "##데": 1595,
      "##션": 1596,
      "##난": 1597,
      "##있": 1598,
      "##학": 1599,
      "##B": 1600,
      "##픽": 1601,
      "##착": 1602,
      "##륙": 1603,
      "##D": 1604,
      "##광": 1605,
      "##배": 1606,
      "##너": 1607,
      "##련": 1608,
      "##프": 1609,
      "##목": 1610,
      "##쓰": 1611,
      "##메": 1612,
      "##드": 1613,
      "##채": 1614,
      "##널": 1615,
      "##킴": 1616,
      "##X": 1617,
      "##물": 1618,
      "##파": 1619,
      "##괄": 1620,
      "##납": 1621,
      "##필": 1622,
      "##혼": 1623,
      "##번": 1624,
      "##호": 1625,
      "##잡": 1626,
      "##힌": 1627,
      "##월": 1628,
      "##W": 1629,
      "##,": 1630,
      "##뤘": 1631,
      "##됩": 1632,
      "##q": 1633,
      "##절": 1634,
      "##항": 1635,
      "##역": 1636,
      "##멘": 1637,
      "##움": 1638,
      "##멍": 1639,
      "##규": 1640,
      "##려": 1641,
      "##z": 1642,
      "##렸": 1643,
      "##루": 1644,
      "##뉴": 1645,
      "##퀴": 1646,
      "##값": 1647,
      "##뮤": 1648,
      "##속": 1649,
      "##$": 1650,
      "##클": 1651,
      "##k": 1652,
      "##싸": 1653,
      "##슈": 1654,
      "##린": 1655,
      "##째": 1656,
      "##j": 1657,
      "##막": 1658,
      "##짐": 1659,
      "##람": 1660,
      "##애": 1661,
      "##중": 1662,
      "##웃": 1663,
      "##싱": 1664,
      "##릿": 1665,
      "##척": 1666,
      "##]": 1667,
      "##h": 1668,
      "##○": 1669,
      "##패": 1670,
      "##볼": 1671,
      "##연": 1672,
      "##균": 1673,
      "##종": 1674,
      "##느": 1675,
      "##허": 1676,
      "##혁": 1677,
      "##칭": 1678,
      "##틸": 1679,
      "##팡": 1680,
      "##쿨": 1681,
      "##머": 1682,
      "##험": 1683,
      "##총": 1684,
      "##롭": 1685,
      "##날": 1686,
      "##견": 1687,
      "##엣": 1688,
      "##불": 1689,
      "##저": 1690,
      "##끌": 1691,
      "##줍": 1692,
      "##베": 1693,
      "##캘": 1694,
      "##'": 1695,
      "##권": 1696,
      "##F": 1697,
      "##흐": 1698,
      "##엇": 1699,
      "##몬": 1700,
      "##것": 1701,
      "##탠": 1702,
      "##샤": 1703,
      "##바": 1704,
      "##랜": 1705,
      "##협": 1706,
      "##플": 1707,
      "##레": 1708,
      "##염": 1709,
      "##x": 1710,
      "##빨": 1711,
      "##병": 1712,
      "##올": 1713,
      "##감": 1714,
      "##말": 1715,
      "##두": 1716,
      "##U": 1717,
      "##겟": 1718,
      "##워": 1719,
      "##휘": 1720,
      "##휴": 1721,
      "##좋": 1722,
      "##쇼": 1723,
      "##핑": 1724,
      "##룹": 1725,
      "##꿀": 1726,
      "##때": 1727,
      "##존": 1728,
      "##팀": 1729,
      "##른": 1730,
      "##톤": 1731,
      "##N": 1732,
      "##쿄": 1733,
      "##쳤": 1734,
      "##탈": 1735,
      "##)": 1736,
      "##”": 1737,
      "##측": 1738,
      "##엔": 1739,
      "##흡": 1740,
      "##됨": 1741,
      "##극": 1742,
      "##폐": 1743,
      "##턴": 1744,
      "##창": 1745,
      "##돔": 1746,
      "##투": 1747,
      "##융": 1748,
      "##꽃": 1749,
      "##담": 1750,
      "##둥": 1751,
      "##텍": 1752,
      "##닷": 1753,
      "##컴": 1754,
      "##높": 1755,
      "##셔": 1756,
      "##닝": 1757,
      "##손": 1758,
      "##폰": 1759,
      "##덕": 1760,
      "##넥": 1761,
      "##컨": 1762,
      "##맹": 1763,
      "##촉": 1764,
      "##괴": 1765,
      "##켓": 1766,
      "##맥": 1767,
      "##씨": 1768,
      "##셋": 1769,
      "##황": 1770,
      "##살": 1771,
      "##청": 1772,
      "##μ": 1773,
      "##벤": 1774,
      "##랙": 1775,
      "##풍": 1776,
      "##렬": 1777,
      "##H": 1778,
      "##~": 1779,
      "##범": 1780,
      "##씩": 1781,
      "##[": 1782,
      "##논": 1783,
      "##펀": 1784,
      "##렌": 1785,
      "##쳐": 1786,
      "##닥": 1787,
      "##옥": 1788,
      "##칸": 1789,
      "##잘": 1790,
      "##독": 1791,
      "##’": 1792,
      "##좌": 1793,
      "##취": 1794,
      "##혀": 1795,
      "##數": 1796,
      "##.": 1797,
      "##\"": 1798,
      "##링": 1799,
      "##ㅔ": 1800,
      "##벨": 1801,
      "##새": 1802,
      "##참": 1803,
      "##듀": 1804,
      "##런": 1805,
      "##겨": 1806,
      "##륨": 1807,
      "##압": 1808,
      "##변": 1809,
      "##븐": 1810,
      "##없": 1811,
      "##웍": 1812,
      "##쇄": 1813,
      "##잔": 1814,
      "##혜": 1815,
      "##킨": 1816,
      "##남": 1817,
      "##헌": 1818,
      "##윤": 1819,
      "##댓": 1820,
      "##멤": 1821,
      "##같": 1822,
      "##動": 1823,
      "##率": 1824,
      "##Y": 1825,
      "##던": 1826,
      "##곤": 1827,
      "##온": 1828,
      "##맞": 1829,
      "##춰": 1830,
      "##뢰": 1831,
      "##뉨": 1832,
      "##놓": 1833,
      "##악": 1834,
      "##커": 1835,
      "##즘": 1836,
      "##쉬": 1837,
      "##졌": 1838,
      "##집": 1839,
      "##먼": 1840,
      "##꼴": 1841,
      "##추": 1842,
      "##젼": 1843,
      "##철": 1844,
      "##듈": 1845,
      "##카": 1846,
      "##빈": 1847,
      "##침": 1848,
      "##늘": 1849,
      "##튼": 1850,
      "##럼": 1851,
      "##뉘": 1852,
      "##잉": 1853,
      "##셉": 1854,
      "##벽": 1855,
      "##깨": 1856,
      "##울": 1857,
      "##렛": 1858,
      "##켰": 1859,
      "##켜": 1860,
      "##슴": 1861,
      "##젠": 1862,
      "##북": 1863,
      "##앙": 1864,
      "##끔": 1865,
      "##퍼": 1866,
      "##갑": 1867,
      "##릇": 1868,
      "##냐": 1869,
      "##밭": 1870,
      "##>": 1871,
      "##젝": 1872,
      "##홈": 1873,
      "##죽": 1874,
      "##곳": 1875,
      "##셈": 1876,
      "##블": 1877,
      "##㎡": 1878,
      "##답": 1879,
      "##춘": 1880,
      "##핍": 1881,
      "##◆": 1882,
      "##듯": 1883,
      "##-": 1884,
      "##걸": 1885,
      "##탄": 1886,
      "##벳": 1887,
      "##봇": 1888,
      "##*": 1889,
      "##닐": 1890,
      "##섰": 1891,
      "##밀": 1892,
      "##꼈": 1893,
      "##찍": 1894,
      "##벌": 1895,
      "##몰": 1896,
      "##넬": 1897,
      "##코": 1898,
      "##농": 1899,
      "##톰": 1900,
      "##슬": 1901,
      "##땜": 1902,
      "##끄": 1903,
      "##노": 1904,
      "##킷": 1905,
      "##곡": 1906,
      "##길": 1907,
      "##님": 1908,
      "##큼": 1909,
      "##렵": 1910,
      "##價": 1911,
      "##셜": 1912,
      "##골": 1913,
      "##헨": 1914,
      "##뤄": 1915,
      "##푸": 1916,
      "##멱": 1917,
      "##뜻": 1918,
      "##킹": 1919,
      "##맘": 1920,
      "##닉": 1921,
      "##께": 1922,
      "##?": 1923,
      "##넵": 1924,
      "##컬": 1925,
      "##뉜": 1926,
      "##펴": 1927,
      "##낌": 1928,
      "##슷": 1929,
      "##텔": 1930,
      "##못": 1931,
      "##줄": 1932,
      "##먹": 1933,
      "##①": 1934,
      "##룩": 1935,
      "##틱": 1936,
      "##숙": 1937,
      "##끗": 1938,
      "##십": 1939,
      "##%": 1940,
      "##친": 1941,
      "##웨": 1942,
      "##났": 1943,
      "##눠": 1944,
      "##끼": 1945,
      "##롤": 1946,
      "##알": 1947,
      "##짜": 1948,
      "##돈": 1949,
      "##춤": 1950,
      "##놀": 1951,
      "##룸": 1952,
      "##첨": 1953,
      "##랩": 1954,
      "##:": 1955,
      "##밥": 1956,
      "##뷰": 1957,
      "##닫": 1958,
      "##텝": 1959,
      "##社": 1960,
      "##짓": 1961,
      "##밖": 1962,
      "##!": 1963,
      "##탤": 1964,
      "##릭": 1965,
      "##렙": 1966,
      "##얀": 1967,
      "##곽": 1968,
      "##졸": 1969,
      "##렇": 1970,
      "##캐": 1971,
      "##털": 1972,
      "##꾸": 1973,
      "##핏": 1974,
      "##냈": 1975,
      "##돼": 1976,
      "##콤": 1977,
      "##덴": 1978,
      "##빛": 1979,
      "##늬": 1980,
      "##깝": 1981,
      "##찬": 1982,
      "##따": 1983,
      "##빵": 1984,
      "##냉": 1985,
      "##쇠": 1986,
      "##롯": 1987,
      "##갈": 1988,
      "##픈": 1989,
      "##홀": 1990,
      "##톱": 1991,
      "##폴": 1992,
      "##섯": 1993,
      "##촌": 1994,
      "##✓": 1995,
      "##떻": 1996,
      "##긍": 1997,
      "##쾌": 1998,
      "##붙": 1999,
      "##꾼": 2000,
      "##꿔": 2001,
      "##ㅏ": 2002,
      "##ㄷ": 2003,
      "##꺼": 2004,
      "##훈": 2005,
      "##앤": 2006,
      "##눈": 2007,
      "##빙": 2008,
      "##랐": 2009,
      "##듐": 2010,
      "##돌": 2011,
      "##뿐": 2012,
      "##멧": 2013,
      "##잠": 2014,
      "##둔": 2015,
      "##핵": 2016,
      "##밍": 2017,
      "##젤": 2018,
      "##엄": 2019,
      "##겠": 2020,
      "##몽": 2021,
      "##덞": 2022,
      "##쉽": 2023,
      "##칠": 2024,
      "##섭": 2025,
      "##뮬": 2026,
      "##엿": 2027,
      "##잎": 2028,
      "##랫": 2029,
      "##=": 2030,
      "##헤": 2031,
      "##떠": 2032,
      "##콘": 2033,
      "##덟": 2034,
      "##겐": 2035,
      "##떼": 2036,
      "##빌": 2037,
      "##므": 2038,
      "##쳥": 2039,
      "##웁": 2040,
      "##￦": 2041,
      "##/": 2042,
      "##홍": 2043,
      "##Z": 2044,
      "##큘": 2045,
      "##믹": 2046,
      "##낼": 2047,
      "##섬": 2048,
      "##□": 2049,
      "##낸": 2050,
      "##넣": 2051,
      "##듭": 2052,
      "##눕": 2053,
      "##닌": 2054,
      "##얄": 2055,
      "##앉": 2056,
      "##랴": 2057,
      "##폼": 2058,
      "##펌": 2059,
      "##●": 2060,
      "##곱": 2061,
      "##렀": 2062,
      "##넘": 2063,
      "##칩": 2064,
      "##혹": 2065,
      "##→": 2066,
      "##릅": 2067,
      "##췌": 2068,
      "##옵": 2069,
      "##팔": 2070,
      "##쁨": 2071,
      "##냅": 2072,
      "##숍": 2073,
      "##툼": 2074,
      "##딩": 2075,
      "##맨": 2076,
      "##암": 2077,
      "##솥": 2078,
      "##콥": 2079,
      "##깔": 2080,
      "##딕": 2081,
      "##갖": 2082,
      "##콜": 2083,
      "##칼": 2084,
      "##않": 2085,
      "##갔": 2086,
      "##랭": 2087,
      "##탱": 2088,
      "##빠": 2089,
      "##죄": 2090,
      "##킵": 2091,
      "##묘": 2092,
      "##솟": 2093,
      "##큰": 2094,
      "##쁠": 2095,
      "##샘": 2096,
      "##겼": 2097,
      "##윈": 2098,
      "##삭": 2099,
      "##찾": 2100,
      "##껑": 2101,
      "##욕": 2102,
      "##렷": 2103,
      "##둬": 2104,
      "##긴": 2105,
      "##₩": 2106,
      "##벷": 2107,
      "##흥": 2108,
      "##탐": 2109,
      "##묵": 2110,
      "##첩": 2111,
      "##札": 2112,
      "##쫓": 2113,
      "##딪": 2114,
      "##뜨": 2115,
      "##푼": 2116,
      "##뚝": 2117,
      "##희": 2118,
      "##썹": 2119,
      "##낀": 2120,
      "##녹": 2121,
      "##녁": 2122,
      "##펫": 2123,
      "##칫": 2124,
      "##솔": 2125,
      "##ㅇ": 2126,
      "##積": 2127,
      "##즉": 2128,
      "##셀": 2129,
      "##혔": 2130,
      "##뇽": 2131,
      "##뉩": 2132,
      "##쌍": 2133,
      "##왔": 2134,
      "##싼": 2135,
      "##됐": 2136,
      "##씀": 2137,
      "##옆": 2138,
      "##삼": 2139,
      "##舍": 2140,
      "##눔": 2141,
      "##뀌": 2142,
      "##됴": 2143,
      "##錄": 2144,
      "##稅": 2145,
      "##듸": 2146,
      "##겔": 2147,
      "##웅": 2148,
      "##옴": 2149,
      "##•": 2150,
      "##츄": 2151,
      "##잭": 2152,
      "##랄": 2153,
      "##룰": 2154,
      "##즐": 2155,
      "##덜": 2156,
      "##컵": 2157,
      "##룬": 2158,
      "##봐": 2159,
      "##㈜": 2160,
      "##겁": 2161,
      "##또": 2162,
      "##멀": 2163,
      "##캠": 2164,
      "##냥": 2165,
      "##윙": 2166,
      "##옹": 2167,
      "##맵": 2168,
      "##쁘": 2169,
      "##즌": 2170,
      "##봅": 2171,
      "##큐": 2172,
      "##옙": 2173,
      "##륜": 2174,
      "##껏": 2175,
      "##풋": 2176,
      "##쉐": 2177,
      "##씬": 2178,
      "##읍": 2179,
      "##듦": 2180,
      "###": 2181,
      "##+": 2182,
      "##&": 2183,
      "##“": 2184,
      "##풀": 2185,
      "##制": 2186,
      "##御": 2187,
      "##밴": 2188,
      "##렉": 2189,
      "##맛": 2190,
      "##륭": 2191,
      "##덱": 2192,
      "##뜰": 2193,
      "##픔": 2194,
      "##햔": 2195,
      "##숨": 2196,
      "##왕": 2197,
      "##핀": 2198,
      "##^": 2199,
      "##짝": 2200,
      "##엉": 2201,
      "##몇": 2202,
      "##둡": 2203,
      "##쩌": 2204,
      "##·": 2205,
      "##봄": 2206,
      "##깃": 2207,
      "##꿈": 2208,
      "##껍": 2209,
      "##뱅": 2210,
      "##⬅": 2211,
      "##왈": 2212,
      "##끈": 2213,
      "##떤": 2214,
      "##욱": 2215,
      "##쥐": 2216,
      "##틴": 2217,
      "##눌": 2218,
      "##혈": 2219,
      "##③": 2220,
      "##콩": 2221,
      "##벗": 2222,
      "##늑": 2223,
      "##댁": 2224,
      "##엥": 2225,
      "##뒤": 2226,
      "##홉": 2227,
      "##툴": 2228,
      "##찮": 2229,
      "##뿔": 2230,
      "##럴": 2231,
      "##둘": 2232,
      "##둑": 2233,
      "##챕": 2234,
      "##몋": 2235,
      "##흘": 2236,
      "##得": 2237,
      "##팽": 2238,
      "##많": 2239,
      "##쨰": 2240,
      "##ㄹ": 2241,
      "##긋": 2242,
      "##낄": 2243,
      "##<": 2244,
      "##쯤": 2245,
      "##앨": 2246,
      "##쁜": 2247,
      "##갱": 2248,
      "##뮈": 2249,
      "##옷": 2250,
      "##웠": 2251,
      "##짱": 2252,
      "##쌌": 2253,
      "##흰": 2254,
      "##틍": 2255,
      "##럄": 2256,
      "##넓": 2257,
      "##냄": 2258,
      "##니다": 2259,
      "##습니다": 2260,
      "있습니다": 2261,
      "##하고": 2262,
      "##으로": 2263,
      "##되어": 2264,
      "설명": 2265,
      "##서는": 2266,
      "##으며": 2267,
      "##하는": 2268,
      "##에는": 2269,
      "있으며": 2270,
      "설명하고": 2271,
      "문서는": 2272,
      "내용": 2273,
      "##입니다": 2274,
      "##00": 2275,
      "##하여": 2276,
      "강조": 2277,
      "##에서": 2278,
      "배경": 2279,
      "항목": 2280,
      "제시": 2281,
      "##적으로": 2282,
      "대한": 2283,
      "또한": 2284,
      "포함": 2285,
      "나타": 2286,
      "평가": 2287,
      "##란색": 2288,
      "구성": 2289,
      "주요": 2290,
      "200": 2291,
      "##적인": 2292,
      "목표": 2293,
      "관리": 2294,
      "구분": 2295,
      "사용": 2296,
      "원가": 2297,
      "##합니다": 2298,
      "##하며": 2299,
      "내용을": 2300,
      "정리": 2301,
      "업무": 2302,
      "제시하고": 2303,
      "##에서는": 2304,
      "단계": 2305,
      "##이며": 2306,
      "제목": 2307,
      "프로": 2308,
      "),": 2309,
      "기업": 2310,
      "##스트": 2311,
      "강조하고": 2312,
      "흰색": 2313,
      "##라이": 2314,
      "통해": 2315,
      "표는": 2316,
      "슬라이": 2317,
      "##지는": 2318,
      "슬라이드": 2319,
      "전략": 2320,
      "생산": 2321,
      "이미": 2322,
      "보여": 2323,
      "나타내": 2324,
      "계획": 2325,
      "##관리": 2326,
      "대해": 2327,
      "요소": 2328,
      "작성": 2329,
      "제품": 2330,
      "##되었": 2331,
      "교육": 2332,
      "개선": 2333,
      "파란색": 2334,
      "##성을": 2335,
      "분석": 2336,
      "정보": 2337,
      "##er": 2338,
      "과정": 2339,
      "기준": 2340,
      "있는": 2341,
      "##in": 2342,
      "작업": 2343,
      "품질": 2344,
      "##됩니다": 2345,
      "문서": 2346,
      "폰트": 2347,
      "##은색": 2348,
      "구성되어": 2349,
      "##라는": 2350,
      "물류": 2351,
      "비용": 2352,
      "##래프": 2353,
      "자료": 2354,
      "방법": 2355,
      "활용": 2356,
      "매출": 2357,
      "배경은": 2358,
      "위한": 2359,
      "등의": 2360,
      "계산": 2361,
      "##단에는": 2362,
      "보여주": 2363,
      "관련": 2364,
      "검은색": 2365,
      "그래프": 2366,
      "조직": 2367,
      "##st": 2368,
      "슬라이드는": 2369,
      "운영": 2370,
      "##원가": 2371,
      "나타내고": 2372,
      "##이고": 2373,
      "있고": 2374,
      "글씨": 2375,
      "비교": 2376,
      "##다는": 2377,
      "##on": 2378,
      "각각": 2379,
      "담고": 2380,
      "##부터": 2381,
      "##까지": 2382,
      "개발": 2383,
      "페이": 2384,
      "구조": 2385,
      "가지": 2386,
      "사업": 2387,
      "증가": 2388,
      "포함되어": 2389,
      "고객": 2390,
      "변화": 2391,
      "활동": 2392,
      "방식": 2393,
      "##되고": 2394,
      "텍스트": 2395,
      "해당": 2396,
      "판매": 2397,
      "##비스": 2398,
      "##다고": 2399,
      "박스": 2400,
      "##ti": 2401,
      "##en": 2402,
      "표시": 2403,
      "노란색": 2404,
      "개념": 2405,
      "전체": 2406,
      "##되며": 2407,
      "필요": 2408,
      "보여주고": 2409,
      "경영": 2410,
      "아래": 2411,
      "설계": 2412,
      "##별로": 2413,
      "시장": 2414,
      "발생": 2415,
      "설정": 2416,
      "##이익": 2417,
      "시각": 2418,
      "서비스": 2419,
      "가치": 2420,
      "제조": 2421,
      "##세스": 2422,
      "##음을": 2423,
      "기술": 2424,
      "핵심": 2425,
      "##al": 2426,
      "프로세스": 2427,
      "성과": 2428,
      "##해야": 2429,
      "##스템": 2430,
      "##으로는": 2431,
      "19": 2432,
      "등이": 2433,
      "효과": 2434,
      "표준": 2435,
      "따라": 2436,
      "',": 2437,
      "적용": 2438,
      "공정": 2439,
      "중요": 2440,
      "##도록": 2441,
      "이미지는": 2442,
      "##되었습니다": 2443,
      "##하였": 2444,
      "##비용": 2445,
      "##계획": 2446,
      "기능": 2447,
      "##하기": 2448,
      "라는": 2449,
      "실적": 2450,
      "##하게": 2451,
      "수립": 2452,
      "제공": 2453,
      "##가지": 2454,
      "위해": 2455,
      "이라는": 2456,
      "나열": 2457,
      "부품": 2458,
      "##ing": 2459,
      "다양": 2460,
      "표현": 2461,
      "##되는": 2462,
      "명확": 2463,
      "배치": 2464,
      "추진": 2465,
      "##그램": 2466,
      "재료": 2467,
      "투자": 2468,
      "##or": 2469,
      "제안": 2470,
      "이미지": 2471,
      "대상": 2472,
      "문제": 2473,
      "##자인": 2474,
      "절감": 2475,
      "다양한": 2476,
      "디자인": 2477,
      "진행": 2478,
      "##ce": 2479,
      "확인": 2480,
      "검정": 2481,
      "시스템": 2482,
      "##an": 2483,
      "영업": 2484,
      "세부": 2485,
      "이를": 2486,
      "##ar": 2487,
      "##색은": 2488,
      "10": 2489,
      "그리": 2490,
      "시각적으로": 2491,
      "물류비": 2492,
      "경쟁": 2493,
      "설명하는": 2494,
      "정리한": 2495,
      "나누": 2496,
      "등을": 2497,
      "가능": 2498,
      "##계를": 2499,
      "Co": 2500,
      "경우": 2501,
      "글씨로": 2502,
      "그리고": 2503,
      "입니다": 2504,
      "%)": 2505,
      "시간": 2506,
      "있음을": 2507,
      "화살": 2508,
      "있어": 2509,
      "산출": 2510,
      "화살표": 2511,
      "이루": 2512,
      "강조되어": 2513,
      "표의": 2514,
      "##it": 2515,
      "사용하여": 2516,
      "따른": 2517,
      "바탕": 2518,
      "검정색": 2519,
      "하단에는": 2520,
      "##임을": 2521,
      "설비": 2522,
      "역할": 2523,
      "유지": 2524,
      "차이": 2525,
      "##ro": 2526,
      "회사": 2527,
      "달성": 2528,
      "직무": 2529,
      "페이지는": 2530,
      "흐름": 2531,
      "##이션": 2532,
      "##비는": 2533,
      "##시간": 2534,
      "##단계": 2535,
      "함께": 2536,
      "결과": 2537,
      "##tion": 2538,
      "표시되어": 2539,
      "나누어": 2540,
      "색상": 2541,
      "수행": 2542,
      "기업의": 2543,
      "일정": 2544,
      "있도록": 2545,
      "형태": 2546,
      "000": 2547,
      "자료입니다": 2548,
      "##et": 2549,
      "##자의": 2550,
      "가장": 2551,
      "종합": 2552,
      "제시되어": 2553,
      "##이터": 2554,
      "##이블": 2555,
      "##로는": 2556,
      "그림": 2557,
      "##케팅": 2558,
      "199": 2559,
      "기본": 2560,
      "가격": 2561,
      "검토": 2562,
      "##가치": 2563,
      "이루어": 2564,
      "##도를": 2565,
      "In": 2566,
      "되어": 2567,
      "감소": 2568,
      "표로": 2569,
      "과정을": 2570,
      "%,": 2571,
      "’,": 2572,
      "테이블": 2573,
      "소개": 2574,
      "결정": 2575,
      "데이터": 2576,
      "상단에는": 2577,
      "구분되어": 2578,
      "##es": 2579,
      "문서의": 2580,
      "주황": 2581,
      "##at": 2582,
      "##율을": 2583,
      "구매": 2584,
      "##들이": 2585,
      "배치되어": 2586,
      "기록": 2587,
      "대비": 2588,
      "프로그램": 2589,
      "고려": 2590,
      "향상": 2591,
      "포함하고": 2592,
      "마케팅": 2593,
      "지급": 2594,
      "##성과": 2595,
      "12": 2596,
      "지원": 2597,
      "##라색": 2598,
      "배경에": 2599,
      "체계": 2600,
      "주황색": 2601,
      "정보를": 2602,
      "혁신": 2603,
      "항목은": 2604,
      "내부": 2605,
      "부분": 2606,
      "중심": 2607,
      "##항목": 2608,
      "구축": 2609,
      "##8년": 2610,
      "제목은": 2611,
      "것이": 2612,
      "나열되어": 2613,
      "등급": 2614,
      "빨간": 2615,
      "연도": 2616,
      "이익": 2617,
      "일반": 2618,
      "##비의": 2619,
      "방안": 2620,
      "내용은": 2621,
      "정리되어": 2622,
      "관련된": 2623,
      "내용이": 2624,
      "가독": 2625,
      "것을": 2626,
      "국내": 2627,
      "수치": 2628,
      "정의": 2629,
      "##성이": 2630,
      "##록색": 2631,
      "배경색은": 2632,
      "수익": 2633,
      "코스트": 2634,
      "계열": 2635,
      "페이지": 2636,
      "##기업": 2637,
      "각각의": 2638,
      "검사": 2639,
      "직접": 2640,
      "오른": 2641,
      "##되었으며": 2642,
      "으로": 2643,
      "연결": 2644,
      "##1년": 2645,
      "오른쪽": 2646,
      "##력을": 2647,
      "번째": 2648,
      "상단": 2649,
      "폰트로": 2650,
      "##ent": 2651,
      "Pro": 2652,
      "보라색": 2653,
      "빨간색": 2654,
      "사람": 2655,
      "회색": 2656,
      "##as": 2657,
      "절차": 2658,
      "매출액": 2659,
      "구체": 2660,
      "금액": 2661,
      "소비": 2662,
      "\",": 2663,
      "문구": 2664,
      "##반기": 2665,
      "실행": 2666,
      "사진": 2667,
      "##자가": 2668,
      "##있습니다": 2669,
      "##활동": 2670,
      "IT": 2671,
      "실제": 2672,
      "##re": 2673,
      "Cost": 2674,
      "다루": 2675,
      "여러": 2676,
      "재무": 2677,
      "전문": 2678,
      "중앙": 2679,
      "##줍니다": 2680,
      "개념을": 2681,
      "재료비": 2682,
      "보상": 2683,
      "분류": 2684,
      "실시": 2685,
      "이용": 2686,
      "특허": 2687,
      "##방법": 2688,
      "구조를": 2689,
      "기재": 2690,
      "보고": 2691,
      "브랜": 2692,
      "사항": 2693,
      "주제": 2694,
      "폰트는": 2695,
      "브랜드": 2696,
      "막대": 2697,
      "변경": 2698,
      "차트": 2699,
      "##각형": 2700,
      "##라고": 2701,
      "마지": 2702,
      "하는": 2703,
      "환경": 2704,
      "##향을": 2705,
      "보여줍니다": 2706,
      "방법을": 2707,
      "마지막": 2708,
      "심사": 2709,
      "초록색": 2710,
      "확보": 2711,
      "텍스트는": 2712,
      "확인할": 2713,
      "가독성을": 2714,
      "11": 2715,
      "개의": 2716,
      "도식": 2717,
      "이해": 2718,
      "개인": 2719,
      "노무": 2720,
      "사례": 2721,
      "##사항": 2722,
      "항목이": 2723,
      "우측": 2724,
      "##인트": 2725,
      "##0년": 2726,
      "##계산": 2727,
      "성장": 2728,
      "의미": 2729,
      "하고": 2730,
      "그라": 2731,
      "담당": 2732,
      "가공": 2733,
      "순서": 2734,
      "협상": 2735,
      "활용하여": 2736,
      "아이": 2737,
      "나타낸": 2738,
      "100": 2739,
      "고정": 2740,
      "형식": 2741,
      "##젝트": 2742,
      "부문": 2743,
      "프로젝트": 2744,
      "굵은": 2745,
      "왼쪽": 2746,
      "하단": 2747,
      "요소를": 2748,
      "부서": 2749,
      "##개발": 2750,
      "나뉘": 2751,
      "목적": 2752,
      "유형": 2753,
      "##이트": 2754,
      "##ve": 2755,
      "녹색": 2756,
      "재고": 2757,
      "표입니다": 2758,
      "##9년": 2759,
      "##하였습니다": 2760,
      "##자는": 2761,
      "기타": 2762,
      "상품": 2763,
      "성공": 2764,
      "##데이션": 2765,
      "의사": 2766,
      "단위": 2767,
      "목차": 2768,
      "지속": 2769,
      "정리하고": 2770,
      "TE": 2771,
      "##em": 2772,
      "자재": 2773,
      "항목으로": 2774,
      "특정": 2775,
      "합니다": 2776,
      "효율": 2777,
      "##했습니다": 2778,
      "기계": 2779,
      "기존": 2780,
      "변동": 2781,
      "이상": 2782,
      "통한": 2783,
      "특징": 2784,
      "##기준": 2785,
      "##지만": 2786,
      "보입니다": 2787,
      "인사": 2788,
      "##ue": 2789,
      "기획": 2790,
      "낭비": 2791,
      "선정": 2792,
      "인터": 2793,
      "2001년": 2794,
      "흰색이며": 2795,
      "도입": 2796,
      "준비": 2797,
      "파악": 2798,
      "##사의": 2799,
      "적혀": 2800,
      "불량": 2801,
      "##ra": 2802,
      "##점을": 2803,
      "##평가": 2804,
      "작성되어": 2805,
      "명시": 2806,
      "발전": 2807,
      "영역": 2808,
      "항목을": 2809,
      "변화를": 2810,
      "한국": 2811,
      "##에게": 2812,
      "그래프는": 2813,
      "다루고": 2814,
      "산업": 2815,
      "##화를": 2816,
      "수준": 2817,
      "##자로": 2818,
      "##원의": 2819,
      "##하면": 2820,
      "기준으로": 2821,
      "20": 2822,
      "또는": 2823,
      "시작": 2824,
      "직급": 2825,
      "광고": 2826,
      "##분기": 2827,
      "##목표": 2828,
      "##2년": 2829,
      "##까지의": 2830,
      "전체적으로": 2831,
      "비중": 2832,
      "##is": 2833,
      ")'": 2834,
      "모습": 2835,
      "장비": 2836,
      "구분하여": 2837,
      "기반": 2838,
      "시행": 2839,
      "좌측": 2840,
      "현장": 2841,
      "홍보": 2842,
      "설명을": 2843,
      "그라데이션": 2844,
      "공급": 2845,
      "최종": 2846,
      "역할을": 2847,
      "도형": 2848,
      "비고": 2849,
      "원칙": 2850,
      "##4년": 2851,
      "##내용": 2852,
      "##IT": 2853,
      "지역": 2854,
      "##로운": 2855,
      "30": 2856,
      "처리": 2857,
      "표를": 2858,
      "기재되어": 2859,
      "##le": 2860,
      "강조되고": 2861,
      "하늘": 2862,
      "##개의": 2863,
      "##ct": 2864,
      "명확하게": 2865,
      "요구": 2866,
      "##7년": 2867,
      "##이어": 2868,
      "목표를": 2869,
      "필요한": 2870,
      "St": 2871,
      "안내": 2872,
      "점을": 2873,
      "특히": 2874,
      "##이는": 2875,
      "VE": 2876,
      "것으로": 2877,
      "관계를": 2878,
      "연한": 2879,
      "전달": 2880,
      "조사": 2881,
      "현재": 2882,
      "현황": 2883,
      "##라인": 2884,
      "포함됩니다": 2885,
      "NO": 2886,
      "실패": 2887,
      "##지를": 2888,
      "##상각": 2889,
      "##5년": 2890,
      "생산성": 2891,
      "관계": 2892,
      "예시": 2893,
      "차지": 2894,
      "##ss": 2895,
      "이후": 2896,
      "추가": 2897,
      "푸른": 2898,
      "##이나": 2899,
      "단계별": 2900,
      "인력": 2901,
      "질문": 2902,
      "##전략": 2903,
      "박스로": 2904,
      "중요한": 2905,
      "표현하고": 2906,
      "50": 2907,
      "하며": 2908,
      "##검사": 2909,
      "##함을": 2910,
      "나타내는": 2911,
      "형태로": 2912,
      "외부": 2913,
      "##쇼핑": 2914,
      "미국": 2915,
      "분야": 2916,
      "새로운": 2917,
      "이며": 2918,
      "테두": 2919,
      "##업체": 2920,
      "##거나": 2921,
      "제목이": 2922,
      "흐름을": 2923,
      "##ase": 2924,
      "테두리": 2925,
      "사내": 2926,
      "수요": 2927,
      "원형": 2928,
      "위치": 2929,
      "기준을": 2930,
      "마지막으로": 2931,
      "높이고": 2932,
      "안전": 2933,
      "원인": 2934,
      "점검": 2935,
      "포인트": 2936,
      "계획을": 2937,
      "중심으로": 2938,
      "문구가": 2939,
      "개요": 2940,
      "기간": 2941,
      "높은": 2942,
      "본문": 2943,
      "협력": 2944,
      "##XT": 2945,
      "나타나": 2946,
      "강화": 2947,
      "비율": 2948,
      "에서": 2949,
      "##하지": 2950,
      "##들을": 2951,
      "사용하고": 2952,
      "문서에서는": 2953,
      "TEXT": 2954,
      "간접": 2955,
      "동작": 2956,
      "업체": 2957,
      "##ation": 2958,
      "##사업": 2959,
      "##기술": 2960,
      "##분석": 2961,
      "공수": 2962,
      "안에": 2963,
      "연간": 2964,
      "요인": 2965,
      "이는": 2966,
      "##자와": 2967,
      "##로축": 2968,
      "##경영": 2969,
      "2002년": 2970,
      "여부": 2971,
      "##ic": 2972,
      "##기획": 2973,
      "관한": 2974,
      "예산": 2975,
      "일부": 2976,
      "조정": 2977,
      "지표": 2978,
      "##비를": 2979,
      "측정": 2980,
      "표기": 2981,
      "##절감": 2982,
      "##정보": 2983,
      "전략을": 2984,
      "인터넷": 2985,
      "경제": 2986,
      "##가격": 2987,
      "##들의": 2988,
      "정리하여": 2989,
      "능력": 2990,
      "현금": 2991,
      "##il": 2992,
      "다이어": 2993,
      "상세": 2994,
      "##3년": 2995,
      "##에서의": 2996,
      "방안을": 2997,
      "모든": 2998,
      "반영": 2999,
      "##자를": 3000,
      "##OS": 3001,
      "##생산": 3002,
      "체계적으로": 3003,
      "임금": 3004,
      "종류": 3005,
      "책임": 3006,
      "해외": 3007,
      "해결": 3008,
      "##도는": 3009,
      "항목에": 3010,
      "단계에서는": 3011,
      "##ow": 3012,
      "##기를": 3013,
      "##설팅": 3014,
      "##디어": 3015,
      "##ch": 3016,
      "##ity": 3017,
      "25": 3018,
      "것입니다": 3019,
      "예상": 3020,
      "다이어그램": 3021,
      "Val": 3022,
      "산정": 3023,
      "화면": 3024,
      "##기능": 3025,
      "내용으로는": 3026,
      "다른": 3027,
      "들어": 3028,
      "요약": 3029,
      "평균": 3030,
      "##냅니다": 3031,
      "경력": 3032,
      "범위": 3033,
      "연구": 3034,
      "크게": 3035,
      "##재료": 3036,
      "나타냅니다": 3037,
      "##ine": 3038,
      "비율을": 3039,
      "상반기": 3040,
      "투입": 3041,
      "##원이": 3042,
      "##비와": 3043,
      "##ate": 3044,
      "같은": 3045,
      "비전": 3046,
      "사각형": 3047,
      "자기": 3048,
      "정도": 3049,
      "지식": 3050,
      "##tive": 3051,
      "##하였으며": 3052,
      "명확히": 3053,
      "영업이익": 3054,
      "형식으로": 3055,
      "하늘색": 3056,
      "설치": 3057,
      "한다고": 3058,
      "회의": 3059,
      "##ay": 3060,
      "##이라는": 3061,
      "##가상각": 3062,
      "##페이": 3063,
      "내용입니다": 3064,
      "표현되어": 3065,
      "나뉘어": 3066,
      "TV": 3067,
      "사양": 3068,
      "쉽게": 3069,
      "어떻": 3070,
      "조건": 3071,
      "차별": 3072,
      "##제품": 3073,
      "##OI": 3074,
      "제조원가": 3075,
      "어떻게": 3076,
      "거래": 3077,
      "방향": 3078,
      "수입": 3079,
      "예측": 3080,
      "구분하고": 3081,
      "구체적인": 3082,
      "노무비": 3083,
      "단가": 3084,
      "손익": 3085,
      "신뢰": 3086,
      "창의": 3087,
      "##om": 3088,
      "##치는": 3089,
      "##un": 3090,
      "##PI": 3091,
      "##교육": 3092,
      "설명합니다": 3093,
      "Value": 3094,
      "기대": 3095,
      "도표": 3096,
      "미래": 3097,
      "수량": 3098,
      "혼용": 3099,
      "##워크": 3100,
      "비용을": 3101,
      "주제로": 3102,
      "15": 3103,
      "모델": 3104,
      "선택": 3105,
      "이어": 3106,
      "##래픽": 3107,
      "개별": 3108,
      "계약": 3109,
      "규모": 3110,
      "기호": 3111,
      "모두": 3112,
      "반면": 3113,
      "신규": 3114,
      "영향을": 3115,
      "하얀": 3116,
      "홈쇼핑": 3117,
      "##기의": 3118,
      "##들은": 3119,
      "##였습니다": 3120,
      "##했으며": 3121,
      "아래에는": 3122,
      "효과를": 3123,
      "상황": 3124,
      "역량": 3125,
      "학습": 3126,
      "##get": 3127,
      "##강사": 3128,
      "##요소": 3129,
      "2005년": 3130,
      "전략적": 3131,
      "비교하여": 3132,
      "발생하는": 3133,
      "프로세스를": 3134,
      "푸른색": 3135,
      "감가상각": 3136,
      "근로": 3137,
      "사회": 3138,
      "상태": 3139,
      "확대": 3140,
      "##el": 3141,
      "##자산": 3142,
      "##DP": 3143,
      "2000년": 3144,
      "2004년": 3145,
      "활동을": 3146,
      "##arget": 3147,
      "화살표로": 3148,
      "데이터를": 3149,
      "공간": 3150,
      "##한다고": 3151,
      "대해서": 3152,
      "단순": 3153,
      "렌탈": 3154,
      "만족": 3155,
      "##도의": 3156,
      "설명하며": 3157,
      "내용으로": 3158,
      "Inc": 3159,
      "연도별": 3160,
      "그룹": 3161,
      "부여": 3162,
      "부족": 3163,
      "실천": 3164,
      "제작": 3165,
      "##ag": 3166,
      "##텐츠": 3167,
      "##보다": 3168,
      "2008년": 3169,
      "조직의": 3170,
      "이미지의": 3171,
      "그림은": 3172,
      "12월": 3173,
      "명시되어": 3174,
      "9월": 3175,
      "간의": 3176,
      "발표": 3177,
      "사이": 3178,
      "위에": 3179,
      "이유": 3180,
      "정책": 3181,
      "채용": 3182,
      "컨설팅": 3183,
      "##시키": 3184,
      "##방식": 3185,
      "##서의": 3186,
      "##흐름": 3187,
      "항목과": 3188,
      "제목과": 3189,
      "제품의": 3190,
      "가지고": 3191,
      "%),": 3192,
      "결과를": 3193,
      "1999년": 3194,
      "계열의": 3195,
      "Target": 3196,
      "대응": 3197,
      "방문": 3198,
      "하반기": 3199,
      "슬라이드입니다": 3200,
      "중앙에는": 3201,
      "KPI": 3202,
      "ROI": 3203,
      "공유": 3204,
      "연계": 3205,
      "인원": 3206,
      "측면": 3207,
      "행사": 3208,
      "##한다는": 3209,
      "##대로": 3210,
      "바탕에": 3211,
      "오른쪽에는": 3212,
      "등록": 3213,
      "리더": 3214,
      "이동": 3215,
      "적절": 3216,
      "전시": 3217,
      "##성의": 3218,
      "목표로": 3219,
      "목표원가": 3220,
      "원가절감": 3221,
      "품질비용": 3222,
      "소비자": 3223,
      "PI": 3224,
      "상호": 3225,
      "원으로": 3226,
      "한다는": 3227,
      "##ol": 3228,
      "업무를": 3229,
      "요소가": 3230,
      "Con": 3231,
      "등으로": 3232,
      "어떤": 3233,
      "온라인": 3234,
      "있다": 3235,
      "자동": 3236,
      "전반": 3237,
      "접근": 3238,
      "##도와": 3239,
      "##ur": 3240,
      "##회사": 3241,
      "##공정": 3242,
      "2006": 3243,
      "전체적인": 3244,
      "Com": 3245,
      "바탕으로": 3246,
      "En": 3247,
      "분홍": 3248,
      "자본": 3249,
      "창출": 3250,
      "한눈": 3251,
      "합계": 3252,
      "행동": 3253,
      "##us": 3254,
      "##RP": 3255,
      "##트워크": 3256,
      "원가계산": 3257,
      "##cess": 3258,
      "이루어져": 3259,
      "차트는": 3260,
      "하얀색": 3261,
      "한눈에": 3262,
      "견적": 3263,
      "경비": 3264,
      "관점": 3265,
      "출하": 3266,
      "##ction": 3267,
      "##됨을": 3268,
      "##entive": 3269,
      "1월": 3270,
      "40": 3271,
      "로고": 3272,
      "부가": 3273,
      "상승": 3274,
      "외주": 3275,
      "자산": 3276,
      "전개": 3277,
      "조달": 3278,
      "클린": 3279,
      "##지원": 3280,
      "##수를": 3281,
      "배경과": 3282,
      "##적으로는": 3283,
      "화살표를": 3284,
      "000원": 3285,
      "언급": 3286,
      "연두": 3287,
      "##티브": 3288,
      "##인지": 3289,
      "##구조": 3290,
      "##결정": 3291,
      "원가를": 3292,
      "단계로": 3293,
      "방식을": 3294,
      "중요성을": 3295,
      "테이블은": 3296,
      "##ITS": 3297,
      "분홍색": 3298,
      "CITS": 3299,
      "사고": 3300,
      "세계": 3301,
      "위기": 3302,
      "있다고": 3303,
      "함을": 3304,
      "##으나": 3305,
      "비교하고": 3306,
      "경쟁력": 3307,
      "차이를": 3308,
      "##ess": 3309,
      "연두색": 3310,
      "To": 3311,
      "시공": 3312,
      "유통": 3313,
      "인센": 3314,
      "##번째": 3315,
      "항목의": 3316,
      "흰색이고": 3317,
      "회사의": 3318,
      "기반으로": 3319,
      "인센티브": 3320,
      "기법": 3321,
      "대표": 3322,
      "시책": 3323,
      "이에": 3324,
      "##ec": 3325,
      "##되지": 3326,
      "포함되며": 3327,
      "기업이": 3328,
      "박스를": 3329,
      "나열하고": 3330,
      "상단에": 3331,
      "18": 3332,
      "동일": 3333,
      "배분": 3334,
      "인수": 3335,
      "##장을": 3336,
      "##ed": 3337,
      "##ad": 3338,
      "##서를": 3339,
      "##년도": 3340,
      "배경으로": 3341,
      "항목별": 3342,
      "업무의": 3343,
      "검은색으로": 3344,
      "가치를": 3345,
      "모습을": 3346,
      "13": 3347,
      "구입": 3348,
      "기회": 3349,
      "기초": 3350,
      "깔끔": 3351,
      "다섯": 3352,
      "예방": 3353,
      "##체계": 3354,
      "##ER": 3355,
      "##표준": 3356,
      "##집니다": 3357,
      "구성된": 3358,
      "텍스트가": 3359,
      "나누어져": 3360,
      "ERP": 3361,
      "사후": 3362,
      "집중": 3363,
      "##조사": 3364,
      "##ut": 3365,
      "##효과": 3366,
      "##작업": 3367,
      "##머리": 3368,
      "사용되었습니다": 3369,
      "과정이": 3370,
      "과정에서": 3371,
      "방법론": 3372,
      "텍스트로": 3373,
      "연결되어": 3374,
      "08년": 3375,
      "건물": 3376,
      "노동": 3377,
      "도출": 3378,
      "번호": 3379,
      "보이며": 3380,
      "상대": 3381,
      "운반": 3382,
      "월별": 3383,
      "콘텐츠": 3384,
      "##식을": 3385,
      "##마다": 3386,
      "##물류": 3387,
      "##뮤니": 3388,
      "설명되어": 3389,
      "원가기획": 3390,
      "작성되었습니다": 3391,
      "그래프로": 3392,
      "사업계획": 3393,
      "소개하고": 3394,
      "수치를": 3395,
      "도식화": 3396,
      "사례를": 3397,
      "아이디어": 3398,
      "하단의": 3399,
      "클린룸": 3400,
      ")’": 3401,
      "목록": 3402,
      "수율": 3403,
      "자신": 3404,
      "정확": 3405,
      "판단": 3406,
      "##이라고": 3407,
      "##환경": 3408,
      "단계를": 3409,
      "개념과": 3410,
      "서비스를": 3411,
      "핵심가치": 3412,
      "문제점": 3413,
      "왼쪽에는": 3414,
      "비중을": 3415,
      "Str": 3416,
      "차별화": 3417,
      "과거": 3418,
      "네트워크": 3419,
      "자금": 3420,
      "진단": 3421,
      "커뮤니": 3422,
      "##장의": 3423,
      "##am": 3424,
      "강조합니다": 3425,
      "2003년": 3426,
      "파란색으로": 3427,
      "방식으로": 3428,
      "대상으로": 3429,
      "##ark": 3430,
      "CR": 3431,
      "순으로": 3432,
      "어두": 3433,
      "예정": 3434,
      "인재": 3435,
      "일일": 3436,
      "제도": 3437,
      "참여": 3438,
      "최적": 3439,
      "할인": 3440,
      "##사이트": 3441,
      "##등급": 3442,
      "##비율": 3443,
      "##SC": 3444,
      "배경을": 3445,
      "슬라이드의": 3446,
      "전략의": 3447,
      "어두운": 3448,
      "3가지": 3449,
      "Pay": 3450,
      "강의": 3451,
      "과제": 3452,
      "대책": 3453,
      "도면": 3454,
      "무엇": 3455,
      "소요": 3456,
      "일본": 3457,
      "##소통": 3458,
      "##yst": 3459,
      "##회의": 3460,
      "강조된": 3461,
      "요소는": 3462,
      "의사소통": 3463,
      "(%": 3464,
      "Th": 3465,
      "간략": 3466,
      "교통": 3467,
      "배부": 3468,
      "붕어": 3469,
      "사무": 3470,
      "세분": 3471,
      "장기": 3472,
      "점유": 3473,
      "표지": 3474,
      "하나": 3475,
      "##ig": 3476,
      "##자본": 3477,
      "##만원": 3478,
      "##비가": 3479,
      "##케이션": 3480,
      "##제도": 3481,
      "##상의": 3482,
      "##개월": 3483,
      "##fit": 3484,
      "설명이": 3485,
      "단계는": 3486,
      "단계에서": 3487,
      "의사결정": 3488,
      "붕어빵": 3489,
      "”,": 3490,
      "수출": 3491,
      "집계": 3492,
      "통신": 3493,
      "팀원": 3494,
      "표에서는": 3495,
      "##도로": 3496,
      "##제안": 3497,
      "##수익": 3498,
      "##프라": 3499,
      "##NT": 3500,
      "고객의": 3501,
      "해당하는": 3502,
      "효과가": 3503,
      "명확한": 3504,
      "표기되어": 3505,
      "Incentive": 3506,
      "##ystem": 3507,
      "Sh": 3508,
      "모양": 3509,
      "완료": 3510,
      "작은": 3511,
      "전환": 3512,
      "중간": 3513,
      "최소": 3514,
      "할당": 3515,
      "형성": 3516,
      "확정": 3517,
      "##시설": 3518,
      "##니스": 3519,
      "##위를": 3520,
      "##상을": 3521,
      "##OP": 3522,
      "##주의": 3523,
      "설명한": 3524,
      "요소로": 3525,
      "표준원가": 3526,
      "##orm": 3527,
      "우측에는": 3528,
      "사내강사": 3529,
      "(%)": 3530,
      "II": 3531,
      "가동": 3532,
      "붉은색": 3533,
      "수집": 3534,
      "시험": 3535,
      "인건": 3536,
      "적정": 3537,
      "표가": 3538,
      "필수": 3539,
      "해야": 3540,
      "##과정": 3541,
      "##설계": 3542,
      "##수는": 3543,
      "##있고": 3544,
      "##NG": 3545,
      "분석하고": 3546,
      "보여주는": 3547,
      "##하였고": 3548,
      "최종적으로": 3549,
      "경력개발": 3550,
      "1차": 3551,
      "검은": 3552,
      "노력": 3553,
      "다음": 3554,
      "당기": 3555,
      "만들": 3556,
      "문화": 3557,
      "채널": 3558,
      "##시스템": 3559,
      "##gine": 3560,
      "##ion": 3561,
      "##하거나": 3562,
      "##점이": 3563,
      "##세를": 3564,
      "##PV": 3565,
      "##수립": 3566,
      "##차이": 3567,
      "##혁신": 3568,
      "항목에서는": 3569,
      "업무내용": 3570,
      "이용해": 3571,
      "Engine": 3572,
      "Base": 3573,
      "NPV": 3574,
      "Su": 3575,
      "그에": 3576,
      "모듈": 3577,
      "안정": 3578,
      "제거": 3579,
      "증대": 3580,
      "직원": 3581,
      "체크": 3582,
      "추정": 3583,
      "하위": 3584,
      "##장표": 3585,
      "##기는": 3586,
      "##성에": 3587,
      "##명이": 3588,
      "##치를": 3589,
      "그래프를": 3590,
      "2006년": 3591,
      "기여": 3592,
      "내역": 3593,
      "발굴": 3594,
      "보관": 3595,
      "삼성": 3596,
      "세로축": 3597,
      "아니": 3598,
      "우선": 3599,
      "인물": 3600,
      "통합": 3601,
      "##자료": 3602,
      "##de": 3603,
      "##조건": 3604,
      "강조하는": 3605,
      "구분선": 3606,
      "단계별로": 3607,
      "전략이": 3608,
      "생산량": 3609,
      "4분기": 3610,
      "Man": 3611,
      "Mark": 3612,
      "가로축": 3613,
      "단기": 3614,
      "밝은": 3615,
      "보이는": 3616,
      "부채": 3617,
      "인한": 3618,
      "있다는": 3619,
      "##장이": 3620,
      "##업무": 3621,
      "##었습니다": 3622,
      "##하도록": 3623,
      "##억원": 3624,
      "##form": 3625,
      "##역량": 3626,
      "##감을": 3627,
      "배경의": 3628,
      "문서입니다": 3629,
      "활용한": 3630,
      "증가하는": 3631,
      "수행하는": 3632,
      "Process": 3633,
      "16": 3634,
      "80": 3635,
      "거쳐": 3636,
      "국가": 3637,
      "규정": 3638,
      "극대": 3639,
      "높였습니다": 3640,
      "손실": 3641,
      "웹사이트": 3642,
      "인해": 3643,
      "적합": 3644,
      "제외": 3645,
      "##입되어": 3646,
      "##ment": 3647,
      "포함된": 3648,
      "포함합니다": 3649,
      "평가하는": 3650,
      "평가항목": 3651,
      "2000": 3652,
      "흰색으로": 3653,
      "나타내며": 3654,
      "##ers": 3655,
      "그래프입니다": 3656,
      "비교한": 3657,
      "위해서는": 3658,
      "전달하고": 3659,
      "세분화": 3660,
      "24": 3661,
      "4가지": 3662,
      "갈색": 3663,
      "대하여": 3664,
      "동안": 3665,
      "세금": 3666,
      "쇼핑": 3667,
      "순환": 3668,
      "않는": 3669,
      "인포": 3670,
      "존재": 3671,
      "##능력": 3672,
      "##관계": 3673,
      "##보고": 3674,
      "##률을": 3675,
      "##즈니스": 3676,
      "강조하며": 3677,
      "제시되고": 3678,
      "목표와": 3679,
      "구분되며": 3680,
      "업무항목": 3681,
      "부분은": 3682,
      "절차를": 3683,
      "지속적인": 3684,
      "6월": 3685,
      "70": 3686,
      "IM": 3687,
      "없는": 3688,
      "에서는": 3689,
      "우수": 3690,
      "이러": 3691,
      "전사": 3692,
      "전력": 3693,
      "최고": 3694,
      "##ri": 3695,
      "##이란": 3696,
      "##기와": 3697,
      "##MM": 3698,
      "##실적": 3699,
      "##수록": 3700,
      "##그래픽": 3701,
      "2007년": 3702,
      "##관리비": 3703,
      "비용이": 3704,
      "글씨를": 3705,
      "구조로": 3706,
      "산출물": 3707,
      "##단계로": 3708,
      "구체적으로": 3709,
      "Comm": 3710,
      "가로": 3711,
      "계층": 3712,
      "다시": 3713,
      "임대": 3714,
      "표에는": 3715,
      "##ter": 3716,
      "##조직": 3717,
      "##부문": 3718,
      "##운영": 3719,
      "##그래프": 3720,
      "##팀의": 3721,
      "항목별로": 3722,
      "평가를": 3723,
      "제목을": 3724,
      "##되었고": 3725,
      "있는데": 3726,
      "변화에": 3727,
      "기능별": 3728,
      "색상으로": 3729,
      "이루어지": 3730,
      "나뉘며": 3731,
      "좌측에는": 3732,
      "##페이지": 3733,
      "인포그래픽": 3734,
      "이러한": 3735,
      "반품": 3736,
      "선으로": 3737,
      "수정": 3738,
      "열로": 3739,
      "지적": 3740,
      "##와의": 3741,
      "##처리": 3742,
      "##회계": 3743,
      "##원가계산": 3744,
      "노란색과": 3745,
      "차이가": 3746,
      "연도별로": 3747,
      "##기업의": 3748,
      "상단의": 3749,
      "Costing": 3750,
      "사항을": 3751,
      "Ex": 3752,
      "간단": 3753,
      "글로": 3754,
      "도구": 3755,
      "설립": 3756,
      "수선": 3757,
      "순이익": 3758,
      "실현": 3759,
      "점이": 3760,
      "조립": 3761,
      "지도": 3762,
      "##도가": 3763,
      "##부분": 3764,
      "##AT": 3765,
      "##수가": 3766,
      "##per": 3767,
      "##개선": 3768,
      "##주고": 3769,
      "배경이": 3770,
      "포함한": 3771,
      "방법에": 3772,
      "비교할": 3773,
      "문제를": 3774,
      "보고서": 3775,
      "가공비": 3776,
      "안내하고": 3777,
      "현황을": 3778,
      "혼용되어": 3779,
      "14": 3780,
      "300": 3781,
      "60": 3782,
      "공식": 3783,
      "글자로": 3784,
      "낮은": 3785,
      "도급": 3786,
      "메뉴": 3787,
      "부적": 3788,
      "서로": 3789,
      "승진": 3790,
      "시정": 3791,
      "유사": 3792,
      "의한": 3793,
      "이윤": 3794,
      "입고": 3795,
      "주관": 3796,
      "주로": 3797,
      "팀장": 3798,
      "현상": 3799,
      "##est": 3800,
      "##od": 3801,
      "##지표": 3802,
      "##으면": 3803,
      "##하다는": 3804,
      "##통신": 3805,
      "##율이": 3806,
      "##SS": 3807,
      "##수준": 3808,
      "##50": 3809,
      "##순이익": 3810,
      "##으로써": 3811,
      "파란색과": 3812,
      "정보의": 3813,
      "폰트색은": 3814,
      "자료로": 3815,
      "방식이": 3816,
      "노란색으로": 3817,
      "제조경": 3818,
      "기능을": 3819,
      "색상은": 3820,
      "Profit": 3821,
      "중앙에": 3822,
      "도식은": 3823,
      "차지하고": 3824,
      "기호를": 3825,
      "극대화": 3826,
      "부적합": 3827,
      "Pl": 3828,
      "PC": 3829,
      "Per": 3830,
      "가맹": 3831,
      "급여": 3832,
      "되는": 3833,
      "비즈니스": 3834,
      "사전": 3835,
      "시설": 3836,
      "실내": 3837,
      "연봉": 3838,
      "이고": 3839,
      "초기": 3840,
      "##한다": 3841,
      "##단가": 3842,
      "##ck": 3843,
      "항목으로는": 3844,
      "제시합니다": 3845,
      "있는지": 3846,
      "사업부": 3847,
      "실적을": 3848,
      "디자인적으로는": 3849,
      "검정색으로": 3850,
      "이용하여": 3851,
      "##ateg": 3852,
      "객관": 3853,
      "곡선": 3854,
      "낭비의": 3855,
      "분장표": 3856,
      "않고": 3857,
      "응답": 3858,
      "재질": 3859,
      "전망": 3860,
      "퇴직": 3861,
      "패널": 3862,
      "##자금": 3863,
      "##사각형": 3864,
      "##비로": 3865,
      "##RR": 3866,
      "##액을": 3867,
      "##규직": 3868,
      "분석을": 3869,
      "성과를": 3870,
      "이미지가": 3871,
      "##ance": 3872,
      "고려하여": 3873,
      "고려해야": 3874,
      "막대그래프": 3875,
      "근로자": 3876,
      "인건비": 3877,
      "아니라": 3878,
      "90": 3879,
      "LG": 3880,
      "경험": 3881,
      "높이": 3882,
      "많은": 3883,
      "미만": 3884,
      "방향을": 3885,
      "분위": 3886,
      "어려": 3887,
      "의료": 3888,
      "이하": 3889,
      "##ap": 3890,
      "##리는": 3891,
      "##제목": 3892,
      "제목으로": 3893,
      "##ering": 3894,
      "비용의": 3895,
      "자료를": 3896,
      "아래에": 3897,
      "설정하고": 3898,
      "표준화": 3899,
      "가능성": 3900,
      "11월": 3901,
      "##ement": 3902,
      "Manag": 3903,
      "Market": 3904,
      "COS": 3905,
      "ET": 3906,
      "Sp": 3907,
      "공통": 3908,
      "말머리": 3909,
      "맞춤": 3910,
      "법인": 3911,
      "선발": 3912,
      "타사": 3913,
      "피드": 3914,
      "##기간": 3915,
      "##uction": 3916,
      "##AP": 3917,
      "##평균": 3918,
      "##IMM": 3919,
      "내용의": 3920,
      "배경색": 3921,
      "구분을": 3922,
      "전략과": 3923,
      "제품을": 3924,
      "글씨는": 3925,
      "효과적으로": 3926,
      "의미합니다": 3927,
      "지속적으로": 3928,
      "요약한": 3929,
      "커뮤니케이션": 3930,
      "COST": 3931,
      "피드백": 3932,
      "5가지": 3933,
      "가중": 3934,
      "교환": 3935,
      "금형": 3936,
      "부모": 3937,
      "영향": 3938,
      "용어": 3939,
      "인상": 3940,
      "자체": 3941,
      "장소": 3942,
      "주주": 3943,
      "통제": 3944,
      "특별": 3945,
      "회계": 3946,
      "##하다고": 3947,
      "##르게": 3948,
      "##NE": 3949,
      "원가의": 3950,
      "요소별": 3951,
      "작성되었으며": 3952,
      "개선을": 3953,
      "하단에": 3954,
      "감가상각비": 3955,
      "3분기": 3956,
      "Cy": 3957,
      "고용": 3958,
      "납부": 3959,
      "라인": 3960,
      "분기": 3961,
      "수술": 3962,
      "운송": 3963,
      "육아": 3964,
      "인증": 3965,
      "인프라": 3966,
      "정기": 3967,
      "주식": 3968,
      "지불": 3969,
      "참가": 3970,
      "추구": 3971,
      "폐기": 3972,
      "회수": 3973,
      "흑백": 3974,
      "##된다는": 3975,
      "##vi": 3976,
      "##당성": 3977,
      "##명과": 3978,
      "##현황": 3979,
      "##수량": 3980,
      "##CT": 3981,
      "##있으며": 3982,
      "##려져": 3983,
      "2009년": 3984,
      "원가는": 3985,
      "원가관리": 3986,
      "요소로는": 3987,
      "정보가": 3988,
      "폰트를": 3989,
      "부품의": 3990,
      "##ore": 3991,
      "소개하는": 3992,
      "##read": 3993,
      "##사항을": 3994,
      "효율적인": 3995,
      ")',": 3996,
      "깔끔한": 3997,
      "Strateg": 3998,
      "간략히": 3999,
      "Engineering": 4000,
      "CDP": 4001,
      "LOS": 4002,
      "공장": 4003,
      "반복": 4004,
      "섹션": 4005,
      "않았": 4006,
      "이자": 4007,
      "진한": 4008,
      "파견": 4009,
      "##ep": 4010,
      "##자재": 4011,
      "##사가": 4012,
      "##이를": 4013,
      "##조치": 4014,
      "##였으며": 4015,
      "##설정": 4016,
      "##개념": 4017,
      "##표를": 4018,
      "내용과": 4019,
      "설정되어": 4020,
      "##ort": 4021,
      "가능성이": 4022,
      "기본급": 4023,
      "목차를": 4024,
      "원인을": 4025,
      "도표는": 4026,
      "##시키는": 4027,
      "부가가치": 4028,
      "IMT": 4029,
      "LOSS": 4030,
      "21": 4031,
      "IRR": 4032,
      "Po": 4033,
      "경상": 4034,
      "과세": 4035,
      "당해": 4036,
      "무균": 4037,
      "반감": 4038,
      "보유": 4039,
      "보이고": 4040,
      "시기": 4041,
      "쓰여": 4042,
      "않은": 4043,
      "요청": 4044,
      "인식": 4045,
      "임원": 4046,
      "자세": 4047,
      "장치": 4048,
      "직사각형": 4049,
      "타이": 4050,
      "택배": 4051,
      "특성": 4052,
      "확장": 4053,
      "##과의": 4054,
      "##만족": 4055,
      "##형은": 4056,
      "##인가": 4057,
      "##도에": 4058,
      "##서비스": 4059,
      "##um": 4060,
      "##ure": 4061,
      "##안을": 4062,
      "##있는": 4063,
      "##드는": 4064,
      "##코스트": 4065,
      "필요성을": 4066,
      "제공하고": 4067,
      "제공하는": 4068,
      "시스템의": 4069,
      "시스템을": 4070,
      "달성률": 4071,
      "색상을": 4072,
      "1998년": 4073,
      "정의와": 4074,
      "28": 4075,
      "3D": 4076,
      "교류": 4077,
      "능률": 4078,
      "동시": 4079,
      "동기": 4080,
      "미치는": 4081,
      "벽면": 4082,
      "보험": 4083,
      "삽입되어": 4084,
      "잠재": 4085,
      "적극": 4086,
      "조치": 4087,
      "파란": 4088,
      "판정": 4089,
      "향후": 4090,
      "##력이": 4091,
      "##적이고": 4092,
      "##조정": 4093,
      "##합병": 4094,
      "##모션": 4095,
      "##리한": 4096,
      "포함하며": 4097,
      "구성원": 4098,
      "전략은": 4099,
      "작업자": 4100,
      "품질관리": 4101,
      "매출원가": 4102,
      "##str": 4103,
      "제공합니다": 4104,
      "제안의": 4105,
      "형태의": 4106,
      "테이블의": 4107,
      "원칙을": 4108,
      "리더십": 4109,
      "적절한": 4110,
      "경상이익": 4111,
      "31": 4112,
      "TP": 4113,
      "건설": 4114,
      "그래픽": 4115,
      "금융": 4116,
      "까지": 4117,
      "달성을": 4118,
      "무역": 4119,
      "분리": 4120,
      "전자": 4121,
      "체계를": 4122,
      "하여": 4123,
      "행은": 4124,
      "##사원": 4125,
      "##이아": 4126,
      "##어져": 4127,
      "##화와": 4128,
      "##가능": 4129,
      "##ber": 4130,
      "##LA": 4131,
      "##세대": 4132,
      "##수와": 4133,
      "폰트가": 4134,
      "자료는": 4135,
      "그래프의": 4136,
      "198": 4137,
      "가능성을": 4138,
      "이익을": 4139,
      "수치가": 4140,
      "당기순이익": 4141,
      "Commun": 4142,
      "00": 4143,
      "1년": 4144,
      "가정": 4145,
      "가운": 4146,
      "감사": 4147,
      "값이": 4148,
      "공동": 4149,
      "그려져": 4150,
      "높아": 4151,
      "누적": 4152,
      "단축": 4153,
      "대리": 4154,
      "시점": 4155,
      "신고": 4156,
      "오피": 4157,
      "유도": 4158,
      "육성": 4159,
      "자격": 4160,
      "조업": 4161,
      "종업": 4162,
      "차량": 4163,
      "천장": 4164,
      "투명": 4165,
      "포장": 4166,
      "현대": 4167,
      "##시장": 4168,
      "##ip": 4169,
      "##센터": 4170,
      "##예측": 4171,
      "##GA": 4172,
      "##가는": 4173,
      "##부품": 4174,
      "##OW": 4175,
      "구성되며": 4176,
      "구분해": 4177,
      "프로모션": 4178,
      "프로세스의": 4179,
      "디자인을": 4180,
      "진행되며": 4181,
      "빨간색으로": 4182,
      "금액을": 4183,
      "개인의": 4184,
      "##0년대": 4185,
      "적혀있습니다": 4186,
      "예시를": 4187,
      "이어지는": 4188,
      "단순한": 4189,
      "자신의": 4190,
      "모양의": 4191,
      "Plan": 4192,
      "500": 4193,
      "?'": 4194,
      "강사": 4195,
      "근무": 4196,
      "금속": 4197,
      "나머": 4198,
      "됩니다": 4199,
      "메시": 4200,
      "부담": 4201,
      "비정": 4202,
      "신제품": 4203,
      "욕구": 4204,
      "워크": 4205,
      "음영": 4206,
      "주의": 4207,
      "중점": 4208,
      "중계": 4209,
      "추천": 4210,
      "카테": 4211,
      "품목": 4212,
      "프레": 4213,
      "##if": 4214,
      "##에도": 4215,
      "##화가": 4216,
      "##정적인": 4217,
      "##품질": 4218,
      "##레이": 4219,
      "계획의": 4220,
      "제품이": 4221,
      "보여주며": 4222,
      "방식의": 4223,
      "시각적": 4224,
      "그림이": 4225,
      "1997년": 4226,
      "페이지의": 4227,
      "변동비": 4228,
      "##하면서": 4229,
      "비율이": 4230,
      "##페이스": 4231,
      "##formance": 4232,
      "글로벌": 4233,
      "가운데": 4234,
      "오피스": 4235,
      "카테고": 4236,
      "1단계": 4237,
      "8월": 4238,
      "DC": 4239,
      "HR": 4240,
      "System": 4241,
      "건축": 4242,
      "근거": 4243,
      "년도": 4244,
      "사이트": 4245,
      "용이": 4246,
      "자원": 4247,
      "전년": 4248,
      "점선": 4249,
      "정부": 4250,
      "정착": 4251,
      "타원": 4252,
      "회원": 4253,
      "##시켜": 4254,
      "##ab": 4255,
      "##이지": 4256,
      "##기에": 4257,
      "##인원": 4258,
      "##스로": 4259,
      "##리를": 4260,
      "##BS": 4261,
      "##절차": 4262,
      "##웨어": 4263,
      "설명되고": 4264,
      "항목에는": 4265,
      "평가가": 4266,
      "사용해": 4267,
      "슬라이드로": 4268,
      "교육을": 4269,
      "작업을": 4270,
      "자료의": 4271,
      "개념이": 4272,
      "공정별": 4273,
      "진행됩니다": 4274,
      "##cean": 4275,
      "가능한": 4276,
      "시간이": 4277,
      "시간을": 4278,
      "가격을": 4279,
      "향상을": 4280,
      "사진이": 4281,
      "현금흐름": 4282,
      "설치되어": 4283,
      "Thread": 4284,
      "26": 4285,
      "2차": 4286,
      "7월": 4287,
      "to": 4288,
      "th": 4289,
      "가진": 4290,
      "개최": 4291,
      "높이는": 4292,
      "능력을": 4293,
      "버튼": 4294,
      "생활": 4295,
      "성능": 4296,
      "수급": 4297,
      "승인": 4298,
      "시가": 4299,
      "위험": 4300,
      "이전": 4301,
      "인정": 4302,
      "짙은": 4303,
      "창업": 4304,
      "초과": 4305,
      "헤더": 4306,
      "##ect": 4307,
      "##금액": 4308,
      "##동산": 4309,
      "##ST": 4310,
      "##대상": 4311,
      "##단위": 4312,
      "##함으로써": 4313,
      "##RO": 4314,
      "##훈련": 4315,
      "배경에는": 4316,
      "증가한": 4317,
      "활동의": 4318,
      "10월": 4319,
      "프로그램의": 4320,
      "##활동에": 4321,
      "예시로": 4322,
      "여부를": 4323,
      "자동차": 4324,
      "로고가": 4325,
      "인수합병": 4326,
      "점유율": 4327,
      "Performance": 4328,
      "가맹점": 4329,
      "Cyber": 4330,
      "반감화": 4331,
      "비정규직": 4332,
      "1회": 4333,
      "48": 4334,
      "45": 4335,
      "Ch": 4336,
      "We": 4337,
      "강좌": 4338,
      "공사": 4339,
      "밑줄": 4340,
      "반도": 4341,
      "보완": 4342,
      "세로": 4343,
      "소제목": 4344,
      "스텝": 4345,
      "아닌": 4346,
      "인적": 4347,
      "자연": 4348,
      "장점": 4349,
      "촉진": 4350,
      "취득": 4351,
      "##간의": 4352,
      "##ace": 4353,
      "##im": 4354,
      "##하지만": 4355,
      "##언트": 4356,
      "##리적": 4357,
      "##문화": 4358,
      "##AM": 4359,
      "##수의": 4360,
      "##결과": 4361,
      "##퓨터": 4362,
      "##필요": 4363,
      "목표는": 4364,
      "관리를": 4365,
      "구분이": 4366,
      "구분된": 4367,
      "흰색이": 4368,
      "교육훈련": 4369,
      "##iness": 4370,
      "방법으로": 4371,
      "글씨와": 4372,
      "변화의": 4373,
      "판매량": 4374,
      "표시하고": 4375,
      "경영진": 4376,
      "시장에서": 4377,
      "##and": 4378,
      "경쟁사": 4379,
      "되어있습니다": 4380,
      "계열이며": 4381,
      "의미하며": 4382,
      "고정비": 4383,
      "부문별": 4384,
      "명시하고": 4385,
      "사회적": 4386,
      "사이버": 4387,
      "Cont": 4388,
      "전반적으로": 4389,
      "##usiness": 4390,
      "반도체": 4391,
      ")\"": 4392,
      "0의": 4393,
      "23": 4394,
      "5S": 4395,
      "CE": 4396,
      "G의": 4397,
      "Le": 4398,
      "공헌": 4399,
      "균형": 4400,
      "그녀": 4401,
      "당사": 4402,
      "도전": 4403,
      "맞는": 4404,
      "면적": 4405,
      "발달": 4406,
      "부동산": 4407,
      "소득": 4408,
      "수는": 4409,
      "숫자": 4410,
      "원재료": 4411,
      "일러": 4412,
      "입력": 4413,
      "차세대": 4414,
      "추세를": 4415,
      "컴퓨터": 4416,
      "타당성": 4417,
      "패턴": 4418,
      "포상": 4419,
      "##ot": 4420,
      "##이면": 4421,
      "##등이": 4422,
      "##기기": 4423,
      "##원으로": 4424,
      "##입금": 4425,
      "##지가": 4426,
      "##케이": 4427,
      "##가동": 4428,
      "##ual": 4429,
      "##uct": 4430,
      "##SM": 4431,
      "##분면": 4432,
      "##구매": 4433,
      "##해주고": 4434,
      "##디언트": 4435,
      "##pl": 4436,
      "##향상": 4437,
      "##본부": 4438,
      "##번호": 4439,
      "##투자": 4440,
      "사용되었으며": 4441,
      "제목의": 4442,
      "기업은": 4443,
      "분석한": 4444,
      "서비스의": 4445,
      "효과적인": 4446,
      "등급이": 4447,
      "국내외": 4448,
      "사진은": 4449,
      "이해할": 4450,
      "그라디언트": 4451,
      "특징을": 4452,
      "파악할": 4453,
      "정도경영": 4454,
      "측면에서": 4455,
      "쇼핑몰": 4456,
      "인포그래픽은": 4457,
      "PCB": 4458,
      "타이틀": 4459,
      "##struction": 4460,
      "22": 4461,
      "Business": 4462,
      "KS": 4463,
      "결론": 4464,
      "공법": 4465,
      "국제": 4466,
      "납기": 4467,
      "담겨": 4468,
      "대기": 4469,
      "독립": 4470,
      "밀가": 4471,
      "색은": 4472,
      "의해": 4473,
      "의견": 4474,
      "인쇄": 4475,
      "임신": 4476,
      "자사": 4477,
      "자가": 4478,
      "장르": 4479,
      "전통": 4480,
      "정렬": 4481,
      "제휴": 4482,
      "주체": 4483,
      "주변": 4484,
      "총합": 4485,
      "충족": 4486,
      "환산": 4487,
      "활성": 4488,
      "##op": 4489,
      "##판매": 4490,
      "##산업": 4491,
      "##부서": 4492,
      "##ul": 4493,
      "##계약": 4494,
      "##라마": 4495,
      "##타일": 4496,
      "##드를": 4497,
      "##노무": 4498,
      "구성을": 4499,
      "구성됩니다": 4500,
      "이미지를": 4501,
      "색상이": 4502,
      "사람이": 4503,
      "##방법을": 4504,
      "기존의": 4505,
      "포인트를": 4506,
      "경제적": 4507,
      "사후관리": 4508,
      "도식화하여": 4509,
      "일러스트": 4510,
      "밀가루": 4511,
      "Sal": 4512,
      "구현": 4513,
      "느낌": 4514,
      "마련": 4515,
      "먼저": 4516,
      "바닥": 4517,
      "부장": 4518,
      "붉은": 4519,
      "사실": 4520,
      "상자": 4521,
      "예를": 4522,
      "유동": 4523,
      "참고": 4524,
      "청소": 4525,
      "체류": 4526,
      "최대": 4527,
      "판촉": 4528,
      "표와": 4529,
      "한다": 4530,
      "##ist": 4531,
      "##ire": 4532,
      "##자에게": 4533,
      "##사양": 4534,
      "##low": 4535,
      "##용품": 4536,
      "##었으며": 4537,
      "##인의": 4538,
      "##산부": 4539,
      "##가공": 4540,
      "##ust": 4541,
      "##세의": 4542,
      "##축은": 4543,
      "##ON": 4544,
      "##심사": 4545,
      "##작용": 4546,
      "##ING": 4547,
      "##납니다": 4548,
      "##규모": 4549,
      "##속성": 4550,
      "##총이익": 4551,
      "구분됩니다": 4552,
      "흰색과": 4553,
      "계획과": 4554,
      "제품별": 4555,
      "분석과": 4556,
      "작업시간": 4557,
      "매출총이익": 4558,
      "판매가격": 4559,
      "설정하는": 4560,
      "##비용을": 4561,
      "Inter": 4562,
      "중심의": 4563,
      "금액이": 4564,
      "재무적": 4565,
      "유형을": 4566,
      "인터페이스": 4567,
      "질문을": 4568,
      "수요예측": 4569,
      "##생산성": 4570,
      "삼성전": 4571,
      "높이기": 4572,
      "Marketing": 4573,
      "수술실": 4574,
      "종업원": 4575,
      "7가지": 4576,
      "95": 4577,
      "Bl": 4578,
      "Ocean": 4579,
      "SK": 4580,
      "of": 4581,
      "구상": 4582,
      "글자": 4583,
      "네모": 4584,
      "등에": 4585,
      "리스트": 4586,
      "매체": 4587,
      "보증": 4588,
      "소재": 4589,
      "순위": 4590,
      "오븐": 4591,
      "운전": 4592,
      "자유": 4593,
      "전산": 4594,
      "직관": 4595,
      "청록색": 4596,
      "최초": 4597,
      "출원": 4598,
      "케어": 4599,
      "화이트": 4600,
      "훈련": 4601,
      "##장은": 4602,
      "##nd": 4603,
      "##이다": 4604,
      "##기관": 4605,
      "##기가": 4606,
      "##화로": 4607,
      "##명을": 4608,
      "##들에게": 4609,
      "##LE": 4610,
      "##현금": 4611,
      "##공구": 4612,
      "##효율": 4613,
      "##port": 4614,
      "##주는": 4615,
      "##순위": 4616,
      "##추고": 4617,
      "사용자": 4618,
      "원가와": 4619,
      "기준이": 4620,
      "비용은": 4621,
      "계산하는": 4622,
      "검은색을": 4623,
      "활동이": 4624,
      "박스에": 4625,
      "박스가": 4626,
      "시장의": 4627,
      "##계획을": 4628,
      "명확화": 4629,
      "제안을": 4630,
      "##art": 4631,
      "경쟁력을": 4632,
      "화살표가": 4633,
      "기록하고": 4634,
      "순서대로": 4635,
      "수준을": 4636,
      "##ill": 4637,
      "다이어그램은": 4638,
      "렌탈오": 4639,
      "Top": 4640,
      "사업계획서": 4641,
      "##SCAP": 4642,
      "분위기를": 4643,
      "Management": 4644,
      "36": 4645,
      "Bu": 4646,
      "Go": 4647,
      "OG": 4648,
      "Re": 4649,
      "WB": 4650,
      "것은": 4651,
      "그러": 4652,
      "노랑": 4653,
      "모니": 4654,
      "반죽": 4655,
      "배포": 4656,
      "보다": 4657,
      "복리": 4658,
      "불필요": 4659,
      "사원": 4660,
      "상위": 4661,
      "상담": 4662,
      "식별": 4663,
      "않습니다": 4664,
      "영어": 4665,
      "우리": 4666,
      "이행": 4667,
      "점수": 4668,
      "조성": 4669,
      "중에서": 4670,
      "창조": 4671,
      "타겟": 4672,
      "표정": 4673,
      "현실": 4674,
      "홈페이지": 4675,
      "휴대": 4676,
      "##사례": 4677,
      "##백만원": 4678,
      "##형으로": 4679,
      "##관련": 4680,
      "##지향": 4681,
      "##고객": 4682,
      "##방향": 4683,
      "##율은": 4684,
      "##세는": 4685,
      "##거래": 4686,
      "##계열": 4687,
      "##ET": 4688,
      "##FT": 4689,
      "개선의": 4690,
      "방법과": 4691,
      "방법이": 4692,
      "활용해": 4693,
      "활용하는": 4694,
      "비교하는": 4695,
      "가지로": 4696,
      "필요함을": 4697,
      "가치와": 4698,
      "성과급": 4699,
      "바탕색은": 4700,
      "검정색입니다": 4701,
      "역할과": 4702,
      "이루어집니다": 4703,
      "결정하는": 4704,
      "데이터는": 4705,
      "##atch": 4706,
      "가독성이": 4707,
      "사진입니다": 4708,
      "의미를": 4709,
      "효율성을": 4710,
      "시작하여": 4711,
      "다이어그램입니다": 4712,
      "거래처": 4713,
      "##amp": 4714,
      "만들어": 4715,
      "간단한": 4716,
      "시정조치": 4717,
      "폐기물": 4718,
      "##irect": 4719,
      "OGSM": 4720,
      "WBI": 4721,
      "모니터": 4722,
      "TDP": 4723,
      "값은": 4724,
      "검색": 4725,
      "그어져": 4726,
      "극복": 4727,
      "라고": 4728,
      "레이아": 4729,
      "매입": 4730,
      "발견": 4731,
      "방지": 4732,
      "베베": 4733,
      "본사": 4734,
      "본부": 4735,
      "신기술": 4736,
      "양식": 4737,
      "업적": 4738,
      "열에는": 4739,
      "위탁": 4740,
      "임산부": 4741,
      "전국": 4742,
      "정돈": 4743,
      "제고": 4744,
      "증감": 4745,
      "직책": 4746,
      "책임을": 4747,
      "해석": 4748,
      "##8억": 4749,
      "##ir": 4750,
      "##iv": 4751,
      "##iz": 4752,
      "##인은": 4753,
      "##인을": 4754,
      "##하우": 4755,
      "##하려": 4756,
      "##점으로": 4757,
      "##sh": 4758,
      "##체로": 4759,
      "##상품": 4760,
      "##상태": 4761,
      "##OT": 4762,
      "##ED": 4763,
      "##5억": 4764,
      "##CH": 4765,
      "##10": 4766,
      "##연한": 4767,
      "##연구": 4768,
      "##UT": 4769,
      "##홈쇼핑": 4770,
      "제시하며": 4771,
      "나타납니다": 4772,
      "평가와": 4773,
      "관리비": 4774,
      "사용되는": 4775,
      "단계의": 4776,
      "요소와": 4777,
      "제품과": 4778,
      "파란색이며": 4779,
      "과정과": 4780,
      "운영하고": 4781,
      "##ence": 4782,
      "표시된": 4783,
      "시각화": 4784,
      "기술적": 4785,
      "적용되어": 4786,
      "물류비를": 4787,
      "일정을": 4788,
      "기본적인": 4789,
      "일반관리비": 4790,
      "특허권": 4791,
      "순서로": 4792,
      "순서를": 4793,
      "형식을": 4794,
      "목적은": 4795,
      "비중이": 4796,
      "위치해": 4797,
      "본문에서는": 4798,
      "요인을": 4799,
      "지표를": 4800,
      "만족도": 4801,
      "상호작용": 4802,
      "상대적으로": 4803,
      "최적화": 4804,
      "무엇인지": 4805,
      "##수익률": 4806,
      "Shar": 4807,
      "III": 4808,
      "이루어지며": 4809,
      "동시에": 4810,
      "카테고리": 4811,
      "DCA": 4812,
      "CEO": 4813,
      "KSF": 4814,
      "Sales": 4815,
      "렌탈오케이": 4816,
      "불필요한": 4817,
      "레이아웃": 4818,
      "38": 4819,
      "Ass": 4820,
      "CO": 4821,
      "Mod": 4822,
      "Te": 4823,
      "각종": 4824,
      "개정": 4825,
      "결합": 4826,
      "권한": 4827,
      "금색": 4828,
      "긍정적인": 4829,
      "나뉩": 4830,
      "돕고": 4831,
      "때문": 4832,
      "무형": 4833,
      "병원": 4834,
      "부하": 4835,
      "생각": 4836,
      "수단": 4837,
      "안에는": 4838,
      "완전": 4839,
      "위성": 4840,
      "유리": 4841,
      "전기": 4842,
      "전경": 4843,
      "점포": 4844,
      "좋은": 4845,
      "주기": 4846,
      "주고": 4847,
      "준수": 4848,
      "천연": 4849,
      "##시판": 4850,
      "##시험": 4851,
      "##gra": 4852,
      "##백만": 4853,
      "##일부터": 4854,
      "##해서": 4855,
      "##회를": 4856,
      "##안에": 4857,
      "##CE": 4858,
      "##cti": 4859,
      "##ject": 4860,
      "##hase": 4861,
      "##룹니다": 4862,
      "항목들을": 4863,
      "단계적으로": 4864,
      "흰색입니다": 4865,
      "생산관리": 4866,
      "과정은": 4867,
      "기준에": 4868,
      "비교를": 4869,
      "개발을": 4870,
      "박스와": 4871,
      "경영지원": 4872,
      "발생한": 4873,
      "##ork": 4874,
      "이미지와": 4875,
      "지원하는": 4876,
      "체계적인": 4877,
      "등급은": 4878,
      "브랜드의": 4879,
      "성공을": 4880,
      "그라데이션으로": 4881,
      "지역별": 4882,
      "처리되어": 4883,
      "나타나고": 4884,
      "이동통신": 4885,
      "최소화": 4886,
      "공헌이익": 4887,
      "느낌을": 4888,
      "나뉩니다": 4889,
      "17": 4890,
      "37": 4891,
      "3단계": 4892,
      "6가지": 4893,
      "BSC": 4894,
      "Cent": 4895,
      "GM": 4896,
      "IS": 4897,
      "Lo": 4898,
      "Out": 4899,
      "Res": 4900,
      "Tra": 4901,
      "UNE": 4902,
      "개설": 4903,
      "교수": 4904,
      "구획": 4905,
      "굵게": 4906,
      "기관": 4907,
      "남색": 4908,
      "단어": 4909,
      "로열": 4910,
      "머리": 4911,
      "받아": 4912,
      "발주": 4913,
      "분포": 4914,
      "성격": 4915,
      "세균": 4916,
      "소송": 4917,
      "업계": 4918,
      "연혁": 4919,
      "완성": 4920,
      "지연": 4921,
      "착용": 4922,
      "착안": 4923,
      "초상": 4924,
      "최근": 4925,
      "코드": 4926,
      "테마": 4927,
      "톤으로": 4928,
      "확립": 4929,
      "##ial": 4930,
      "##등록": 4931,
      "##어나": 4932,
      "##일까지": 4933,
      "##명으로": 4934,
      "##율과": 4935,
      "##제와": 4936,
      "##VD": 4937,
      "##AR": 4938,
      "##라미": 4939,
      "##건을": 4940,
      "##수료": 4941,
      "##CC": 4942,
      "##파악": 4943,
      "##범위": 4944,
      "##되어야": 4945,
      "평가의": 4946,
      "관리자": 4947,
      "관리회계": 4948,
      "단계와": 4949,
      "기업가치": 4950,
      "##int": 4951,
      "작업자의": 4952,
      "문서로": 4953,
      "박스는": 4954,
      "개념은": 4955,
      "필요합니다": 4956,
      "문제점을": 4957,
      "디자인이": 4958,
      "세부적인": 4959,
      "물류비의": 4960,
      "시간과": 4961,
      "일반관리": 4962,
      "정의하고": 4963,
      "페이지로": 4964,
      "사람의": 4965,
      "목적을": 4966,
      "직급별": 4967,
      "개요를": 4968,
      "종류를": 4969,
      "##재료비": 4970,
      "자기자본": 4971,
      "나뉘어져": 4972,
      "조건을": 4973,
      "혼용되고": 4974,
      "역량을": 4975,
      "이유를": 4976,
      "동일한": 4977,
      "다음과": 4978,
      "업무항목과": 4979,
      "Communic": 4980,
      "the": 4981,
      "일러스트가": 4982,
      "Center": 4983,
      "UNESCAP": 4984,
      "로열티": 4985,
      "27": 4986,
      "29": 4987,
      "Camp": 4988,
      "GE": 4989,
      "Patch": 4990,
      "Wh": 4991,
      "간결": 4992,
      "경향을": 4993,
      "규격": 4994,
      "글자는": 4995,
      "기입": 4996,
      "나무": 4997,
      "달러": 4998,
      "둘러": 4999,
      "들고": 5000,
      "목적으로": 5001,
      "방침": 5002,
      "보수": 5003,
      "상각": 5004,
      "선호": 5005,
      "소모": 5006,
      "여유": 5007,
      "요령": 5008,
      "이외": 5009,
      "인지": 5010,
      "자문": 5011,
      "중장": 5012,
      "중소": 5013,
      "지정": 5014,
      "지침": 5015,
      "철도": 5016,
      "페인트": 5017,
      "합리": 5018,
      "행에는": 5019,
      "##ack": 5020,
      "##사와": 5021,
      "##사를": 5022,
      "##화의": 5023,
      "##화된": 5024,
      "##비에": 5025,
      "##보증": 5026,
      "##영업": 5027,
      "##명의": 5028,
      "##면적": 5029,
      "##면서": 5030,
      "##위원": 5031,
      "##했고": 5032,
      "##대비": 5033,
      "##달성": 5034,
      "##률이": 5035,
      "##JT": 5036,
      "##CO": 5037,
      "##co": 5038,
      "##너지": 5039,
      "##프트": 5040,
      "##루션": 5041,
      "##바이": 5042,
      "평가에": 5043,
      "사용되고": 5044,
      "단계가": 5045,
      "##관리의": 5046,
      "분석하는": 5047,
      "과정의": 5048,
      "매출은": 5049,
      "변화와": 5050,
      "변화가": 5051,
      "방식과": 5052,
      "방식에": 5053,
      "시장조사": 5054,
      "제공하며": 5055,
      "절감을": 5056,
      "디자인은": 5057,
      "디자인으로": 5058,
      "나누고": 5059,
      "달성하기": 5060,
      "프로그램을": 5061,
      "120": 5062,
      "혁신을": 5063,
      "##활동의": 5064,
      "전문가": 5065,
      "이용한": 5066,
      "##계산서": 5067,
      "1000": 5068,
      "단위는": 5069,
      "도형을": 5070,
      "도형으로": 5071,
      "위치하며": 5072,
      "상황을": 5073,
      "##age": 5074,
      "Comp": 5075,
      "관점에서": 5076,
      "1월부터": 5077,
      "정확한": 5078,
      "세로축은": 5079,
      "Strategy": 5080,
      "중계기": 5081,
      "Content": 5082,
      "직관적으로": 5083,
      "중장기": 5084,
      "->": 5085,
      "3개의": 5086,
      "5월": 5087,
      "66": 5088,
      "71": 5089,
      "com": 5090,
      "in": 5091,
      "system": 5092,
      "가구": 5093,
      "감정": 5094,
      "건수": 5095,
      "고급": 5096,
      "공구": 5097,
      "구별": 5098,
      "내에서": 5099,
      "다룹니다": 5100,
      "당시": 5101,
      "맞춰": 5102,
      "미흡": 5103,
      "별로": 5104,
      "보통": 5105,
      "보호": 5106,
      "복잡": 5107,
      "부각": 5108,
      "분양": 5109,
      "색으로": 5110,
      "소프트": 5111,
      "수평": 5112,
      "스타일": 5113,
      "신용": 5114,
      "실무": 5115,
      "실험": 5116,
      "어렵": 5117,
      "없이": 5118,
      "연보": 5119,
      "유치": 5120,
      "의식": 5121,
      "이슈": 5122,
      "일회": 5123,
      "있지만": 5124,
      "장애": 5125,
      "점진": 5126,
      "제3": 5127,
      "주도": 5128,
      "직위": 5129,
      "철학": 5130,
      "첫번째": 5131,
      "추이를": 5132,
      "치공구": 5133,
      "토지": 5134,
      "파이": 5135,
      "파트": 5136,
      "##시아": 5137,
      "##th": 5138,
      "##ost": 5139,
      "##된다고": 5140,
      "##검토": 5141,
      "##기법": 5142,
      "##성은": 5143,
      "##하다": 5144,
      "##정책": 5145,
      "##스터": 5146,
      "##명은": 5147,
      "##후생": 5148,
      "##ub": 5149,
      "##러운": 5150,
      "##VA": 5151,
      "##소를": 5152,
      "##미디어": 5153,
      "##테이션": 5154,
      "##안의": 5155,
      "##액은": 5156,
      "##근거": 5157,
      "##목별": 5158,
      "##qu": 5159,
      "##하는지": 5160,
      "강조되었으며": 5161,
      "구성요소": 5162,
      "관리와": 5163,
      "업무가": 5164,
      "생산계획": 5165,
      "파란색의": 5166,
      "비용과": 5167,
      "그래프가": 5168,
      "사업을": 5169,
      "활동과": 5170,
      "텍스트를": 5171,
      "표준시간": 5172,
      "적용하여": 5173,
      "제안서": 5174,
      "진행합니다": 5175,
      "##ard": 5176,
      "산출하는": 5177,
      "수행해야": 5178,
      "종합적으로": 5179,
      "Inve": 5180,
      "Project": 5181,
      "주제를": 5182,
      "프로젝트의": 5183,
      "단위로": 5184,
      "낭비를": 5185,
      "직급체계": 5186,
      "모습이": 5187,
      "차지하는": 5188,
      "범위를": 5189,
      "TV홈쇼핑": 5190,
      "전반적인": 5191,
      "자본금": 5192,
      "##보고서": 5193,
      "##LASS": 5194,
      "나머지": 5195,
      "시가총": 5196,
      "Web": 5197,
      "##ustom": 5198,
      "복리후생": 5199,
      "Sharing": 5200,
      "소프트웨어": 5201,
      "연보라색": 5202,
      "Invest": 5203,
      ")”": 5204,
      "09년": 5205,
      "2월": 5206,
      "2단계": 5207,
      "3년": 5208,
      "3월": 5209,
      "42": 5210,
      "46": 5211,
      "41": 5212,
      "BE": 5213,
      "COP": 5214,
      "CLASS": 5215,
      "Custom": 5216,
      "Qual": 5217,
      "ST": 5218,
      "개당": 5219,
      "검증": 5220,
      "과장": 5221,
      "과잉": 5222,
      "달라": 5223,
      "대부분": 5224,
      "두가지": 5225,
      "명칭": 5226,
      "모드": 5227,
      "바람": 5228,
      "반응": 5229,
      "별도의": 5230,
      "솔루션": 5231,
      "수를": 5232,
      "시사": 5233,
      "실질": 5234,
      "연수": 5235,
      "인간": 5236,
      "일환": 5237,
      "자주": 5238,
      "장비의": 5239,
      "재임": 5240,
      "정비": 5241,
      "줄이": 5242,
      "줄어": 5243,
      "채권": 5244,
      "첨부": 5245,
      "충분": 5246,
      "학력": 5247,
      "합산": 5248,
      "회전": 5249,
      "##시하고": 5250,
      "##act": 5251,
      "##ide": 5252,
      "##의를": 5253,
      "##사고": 5254,
      "##이자": 5255,
      "##어야": 5256,
      "##지며": 5257,
      "##도입니다": 5258,
      "##모리": 5259,
      "##리오": 5260,
      "##부가": 5261,
      "##요령": 5262,
      "##폭기": 5263,
      "##LOW": 5264,
      "##AN": 5265,
      "##설비": 5266,
      "##라도": 5267,
      "##해져": 5268,
      "##MW": 5269,
      "##건으로": 5270,
      "##선이": 5271,
      "##버스": 5272,
      "##액이": 5273,
      "##중심": 5274,
      "강조하여": 5275,
      "강조되었습니다": 5276,
      "##에서도": 5277,
      "항목들이": 5278,
      "제시된": 5279,
      "관리의": 5280,
      "업무흐름": 5281,
      "단계에": 5282,
      "생산성을": 5283,
      "계획에": 5284,
      "비용으로": 5285,
      "관련하여": 5286,
      "검은색과": 5287,
      "##원가를": 5288,
      "텍스트와": 5289,
      "아래쪽": 5290,
      "따라서": 5291,
      "재료비는": 5292,
      "세부적으로": 5293,
      "이루고": 5294,
      "바탕은": 5295,
      "검정색을": 5296,
      "차이는": 5297,
      "직무기술": 5298,
      "그림으로": 5299,
      "이루어진": 5300,
      "감소한": 5301,
      "주황색으로": 5302,
      "부분에서는": 5303,
      "방안이": 5304,
      "Prod": 5305,
      "매출액은": 5306,
      "##방법에": 5307,
      "부문의": 5308,
      "##vel": 5309,
      "특징이": 5310,
      "##raw": 5311,
      "##목표를": 5312,
      "테두리로": 5313,
      "위치하고": 5314,
      "공수는": 5315,
      "반영하여": 5316,
      "비전을": 5317,
      "사양과": 5318,
      "1999년부터": 5319,
      "가로축은": 5320,
      "제외한": 5321,
      "제조경비": 5322,
      "베베하우": 5323,
      "Quality": 5324,
      "바람직": 5325,
      "베베하우스": 5326,
      "1명": 5327,
      "32": 5328,
      "33": 5329,
      "4월": 5330,
      "4개의": 5331,
      "51": 5332,
      "78": 5333,
      "Ben": 5334,
      "CS": 5335,
      "Draw": 5336,
      "Gro": 5337,
      "OP": 5338,
      "SIMM": 5339,
      "Test": 5340,
      "가져": 5341,
      "경로": 5342,
      "고장": 5343,
      "공연": 5344,
      "관찰": 5345,
      "구간": 5346,
      "구역": 5347,
      "높였으며": 5348,
      "다르게": 5349,
      "대기업": 5350,
      "도움": 5351,
      "두고": 5352,
      "물품": 5353,
      "병실": 5354,
      "부산": 5355,
      "불리": 5356,
      "블루": 5357,
      "사출": 5358,
      "샘플": 5359,
      "스스로": 5360,
      "움직": 5361,
      "윤리": 5362,
      "이름": 5363,
      "인당": 5364,
      "장면": 5365,
      "주소": 5366,
      "차장": 5367,
      "차등": 5368,
      "차입금": 5369,
      "패키": 5370,
      "하기": 5371,
      "행정": 5372,
      "획득": 5373,
      "##장비": 5374,
      "##ge": 5375,
      "##ris": 5376,
      "##ain": 5377,
      "##ier": 5378,
      "##our": 5379,
      "##사분면": 5380,
      "##식은": 5381,
      "##색과": 5382,
      "##었고": 5383,
      "##스크": 5384,
      "##부여": 5385,
      "##제어": 5386,
      "##점은": 5387,
      "##들에": 5388,
      "##se": 5389,
      "##si": 5390,
      "##처럼": 5391,
      "##대를": 5392,
      "##공급": 5393,
      "##마케팅": 5394,
      "##경쟁": 5395,
      "##ION": 5396,
      "##롭게": 5397,
      "##레임": 5398,
      "##병실": 5399,
      "내용에": 5400,
      "내용에는": 5401,
      "포함하여": 5402,
      "목표에": 5403,
      "관리하고": 5404,
      "관리하는": 5405,
      "업무는": 5406,
      "기업을": 5407,
      "##ervi": 5408,
      "기준과": 5409,
      "품질보증": 5410,
      "문서에는": 5411,
      "그래프에서는": 5412,
      "운영에": 5413,
      "시장가격": 5414,
      "##비용과": 5415,
      "##비용은": 5416,
      "실적은": 5417,
      "수립과": 5418,
      "수립하는": 5419,
      "대상자": 5420,
      "있어서": 5421,
      "산출근거": 5422,
      "화살표와": 5423,
      "역할이": 5424,
      "유지하는": 5425,
      "수행합니다": 5426,
      "형태를": 5427,
      "이루어졌": 5428,
      "Instruction": 5429,
      "부분을": 5430,
      "부분에는": 5431,
      "수치로": 5432,
      "정의를": 5433,
      "문구와": 5434,
      "##활동을": 5435,
      "환경을": 5436,
      "아이콘": 5437,
      "목적과": 5438,
      "상품의": 5439,
      "지속적": 5440,
      "효율성": 5441,
      "이상의": 5442,
      "영역을": 5443,
      "협력업체": 5444,
      "협력회사": 5445,
      "250": 5446,
      "연구개발": 5447,
      "영업이익은": 5448,
      "로고와": 5449,
      "##물류비": 5450,
      "내역을": 5451,
      "유사한": 5452,
      "어려움": 5453,
      "분기별": 5454,
      "쓰여져": 5455,
      "적극적인": 5456,
      "메시지를": 5457,
      "워크샵": 5458,
      "Blue": 5459,
      "SKT": 5460,
      "##현금흐름": 5461,
      "Goal": 5462,
      "Contents": 5463,
      "Customer": 5464,
      "일환으로": 5465,
      "04": 5466,
      "44": 5467,
      "4개": 5468,
      "4단계": 5469,
      "57": 5470,
      "65": 5471,
      "Dis": 5472,
      "FC": 5473,
      "FLOW": 5474,
      "IN": 5475,
      "No": 5476,
      "Pr": 5477,
      "Phase": 5478,
      "Ro": 5479,
      "TOP": 5480,
      "up": 5481,
      "갈등": 5482,
      "강화를": 5483,
      "같습니다": 5484,
      "개편": 5485,
      "그는": 5486,
      "낭비는": 5487,
      "높고": 5488,
      "담은": 5489,
      "대체": 5490,
      "더욱": 5491,
      "동향": 5492,
      "듯한": 5493,
      "디지": 5494,
      "매우": 5495,
      "면담": 5496,
      "방송": 5497,
      "배너": 5498,
      "보조": 5499,
      "비상": 5500,
      "삭감": 5501,
      "세가지": 5502,
      "소폭": 5503,
      "알려": 5504,
      "어떠": 5505,
      "얼굴": 5506,
      "여성": 5507,
      "연관": 5508,
      "열은": 5509,
      "원을": 5510,
      "월간": 5511,
      "위협": 5512,
      "유입": 5513,
      "의약": 5514,
      "이사": 5515,
      "이라고": 5516,
      "있을": 5517,
      "전부": 5518,
      "정상": 5519,
      "정립": 5520,
      "제1": 5521,
      "조선": 5522,
      "지출": 5523,
      "톤이며": 5524,
      "파랑": 5525,
      "표면": 5526,
      "행복": 5527,
      "협조": 5528,
      "##간접": 5529,
      "##eas": 5530,
      "##gr": 5531,
      "##ies": 5532,
      "##자원": 5533,
      "##자동": 5534,
      "##21": 5535,
      "##원칙": 5536,
      "##지고": 5537,
      "##로서": 5538,
      "##인이": 5539,
      "##보는": 5540,
      "##일은": 5541,
      "##방안": 5542,
      "##방침": 5543,
      "##up": 5544,
      "##단계를": 5545,
      "##EC": 5546,
      "##ff": 5547,
      "##BM": 5548,
      "##프로": 5549,
      "##파견": 5550,
      "##린더": 5551,
      "##팀이": 5552,
      "##젠테이션": 5553,
      "설명과": 5554,
      "강조하기": 5555,
      "관리할": 5556,
      "구분은": 5557,
      "생산수량": 5558,
      "기준은": 5559,
      "방법은": 5560,
      "계산을": 5561,
      "조직도": 5562,
      "글씨가": 5563,
      "활동에": 5564,
      "아래로": 5565,
      "가치평가": 5566,
      "기술개발": 5567,
      "성과지표": 5568,
      "수립하고": 5569,
      "문제가": 5570,
      "##cep": 5571,
      "세부내용": 5572,
      "있어야": 5573,
      "검정색이": 5574,
      "유지하고": 5575,
      "000원이": 5576,
      "그림자": 5577,
      "기록되어": 5578,
      "기록했습니다": 5579,
      "보라색과": 5580,
      "회색으로": 5581,
      "110": 5582,
      "이해하기": 5583,
      "상품을": 5584,
      "목차는": 5585,
      "영역별": 5586,
      "한국의": 5587,
      "수준의": 5588,
      "##목표는": 5589,
      "##ision": 5590,
      "Step": 5591,
      "분야의": 5592,
      "비율은": 5593,
      "설치된": 5594,
      "공간이": 5595,
      "공간을": 5596,
      "언급되어": 5597,
      "##ecial": 5598,
      ")’,": 5599,
      "목록을": 5600,
      "커뮤니티": 5601,
      "##ign": 5602,
      "Show": 5603,
      "가동률": 5604,
      "Space": 5605,
      "벽면에는": 5606,
      "TPS": 5607,
      "활성화": 5608,
      "체류연한": 5609,
      "정돈된": 5610,
      "GMP": 5611,
      "Investment": 5612,
      "COPQ": 5613,
      "##ervice": 5614,
      "(-": 5615,
      "01": 5616,
      "07년": 5617,
      "35": 5618,
      "59": 5619,
      "52": 5620,
      "5년": 5621,
      "69": 5622,
      "77": 5623,
      "75": 5624,
      "CH": 5625,
      "EB": 5626,
      "PS": 5627,
      "SP": 5628,
      "Service": 5629,
      "Vision": 5630,
      "가리": 5631,
      "감독": 5632,
      "값을": 5633,
      "게임": 5634,
      "게시판": 5635,
      "경매": 5636,
      "고흐": 5637,
      "과학": 5638,
      "관심": 5639,
      "글머리": 5640,
      "깨끗": 5641,
      "나와": 5642,
      "나눈": 5643,
      "노출": 5644,
      "당위": 5645,
      "도모": 5646,
      "때는": 5647,
      "라이": 5648,
      "말해주고": 5649,
      "발행": 5650,
      "백만": 5651,
      "별도로": 5652,
      "보안": 5653,
      "부터": 5654,
      "불만": 5655,
      "비행": 5656,
      "선이": 5657,
      "수강": 5658,
      "수송": 5659,
      "양성": 5660,
      "연속성": 5661,
      "예비": 5662,
      "오프": 5663,
      "원하는": 5664,
      "원에서": 5665,
      "유의": 5666,
      "유실": 5667,
      "입체": 5668,
      "있지": 5669,
      "있게": 5670,
      "작용": 5671,
      "재산": 5672,
      "정치": 5673,
      "제2": 5674,
      "제어": 5675,
      "조합": 5676,
      "조작": 5677,
      "줄이는": 5678,
      "총계": 5679,
      "최하": 5680,
      "캠페": 5681,
      "클레임": 5682,
      "태도를": 5683,
      "판관": 5684,
      "패러": 5685,
      "폐지": 5686,
      "현업": 5687,
      "후의": 5688,
      "##tal": 5689,
      "##기구": 5690,
      "##2로": 5691,
      "##색으로": 5692,
      "##어진": 5693,
      "##형태": 5694,
      "##지에": 5695,
      "##인력": 5696,
      "##인프라": 5697,
      "##스를": 5698,
      "##부에": 5699,
      "##점과": 5700,
      "##했다": 5701,
      "##LL": 5702,
      "##분류": 5703,
      "##대장": 5704,
      "##대가": 5705,
      "##대책": 5706,
      "##상에서": 5707,
      "##ME": 5708,
      "##OR": 5709,
      "##수요": 5710,
      "##put": 5711,
      "##량은": 5712,
      "##채널": 5713,
      "##짐을": 5714,
      "##워져": 5715,
      "##팀은": 5716,
      "##컨설팅": 5717,
      "제시됩니다": 5718,
      "구성되었습니다": 5719,
      "관리에": 5720,
      "관리가": 5721,
      "사용하였습니다": 5722,
      "정리된": 5723,
      "##관리는": 5724,
      "요소들이": 5725,
      "작업표준": 5726,
      "매출이": 5727,
      "운영을": 5728,
      "비교하며": 5729,
      "구조와": 5730,
      "고객만족": 5731,
      "방식은": 5732,
      "필요하며": 5733,
      "설계되어": 5734,
      "발생합니다": 5735,
      "기술과": 5736,
      "##all": 5737,
      "적용된": 5738,
      "배치된": 5739,
      "이미지입니다": 5740,
      "문제의": 5741,
      "설비가동": 5742,
      "유지보": 5743,
      "결과가": 5744,
      "색상과": 5745,
      "색상의": 5746,
      "소개하며": 5747,
      "연도의": 5748,
      "수치는": 5749,
      "연결된": 5750,
      "Progra": 5751,
      "차트로": 5752,
      "이해를": 5753,
      "사례로": 5754,
      "담당자": 5755,
      "성공적인": 5756,
      "단위당": 5757,
      "시작으로": 5758,
      "모습입니다": 5759,
      "테두리는": 5760,
      "테두리와": 5761,
      "동작의": 5762,
      "들어가": 5763,
      "측면에서는": 5764,
      "품질비용의": 5765,
      "언급하고": 5766,
      "Tool": 5767,
      "핵심가치는": 5768,
      "대책을": 5769,
      "표지입니다": 5770,
      "우선순위": 5771,
      "부채비율": 5772,
      "세분화되어": 5773,
      "전사적": 5774,
      "임대료": 5775,
      "근로자파견": 5776,
      "프레젠테이션": 5777,
      "##able": 5778,
      "Buil": 5779,
      "##계열의": 5780,
      "Communication": 5781,
      "디지털": 5782,
      "어떠한": 5783,
      "오프라인": 5784,
      "패러다": 5785,
      "Program": 5786,
      "1위": 5787,
      "54": 5788,
      "5개": 5789,
      "B는": 5790,
      "EC": 5791,
      "LC": 5792,
      "Ob": 5793,
      "cost": 5794,
      "가입": 5795,
      "것인가": 5796,
      "공용": 5797,
      "공지": 5798,
      "급격": 5799,
      "나이": 5800,
      "놓여": 5801,
      "누구": 5802,
      "두번째": 5803,
      "말합니다": 5804,
      "발휘": 5805,
      "본질": 5806,
      "블록": 5807,
      "선진": 5808,
      "수리": 5809,
      "시청": 5810,
      "신념": 5811,
      "심리": 5812,
      "양쪽": 5813,
      "어디": 5814,
      "여섯": 5815,
      "오류": 5816,
      "원천": 5817,
      "원료": 5818,
      "이론": 5819,
      "이벤": 5820,
      "작품": 5821,
      "정체": 5822,
      "조명이": 5823,
      "주는": 5824,
      "중국": 5825,
      "청구": 5826,
      "최상": 5827,
      "추출": 5828,
      "키워": 5829,
      "특수": 5830,
      "패션": 5831,
      "편성": 5832,
      "하이": 5833,
      "한계": 5834,
      "행과": 5835,
      "##장소": 5836,
      "##키고": 5837,
      "##과제": 5838,
      "##ail": 5839,
      "##사는": 5840,
      "##기계": 5841,
      "##천만": 5842,
      "##원과": 5843,
      "##인건": 5844,
      "##강사의": 5845,
      "##우위": 5846,
      "##분으로": 5847,
      "##발달": 5848,
      "##Part": 5849,
      "##선과": 5850,
      "##르면": 5851,
      "##회사의": 5852,
      "##pport": 5853,
      "##량과": 5854,
      "##DF": 5855,
      "##메일": 5856,
      "##변경": 5857,
      "##렇게": 5858,
      "##므로": 5859,
      "항목마다": 5860,
      "평가기준": 5861,
      "목표이익": 5862,
      "원가요소": 5863,
      "업무와": 5864,
      "교육이": 5865,
      "분석하여": 5866,
      "과정에": 5867,
      "계산됩니다": 5868,
      "검은색이며": 5869,
      "조직이": 5870,
      "개발자금": 5871,
      "사업의": 5872,
      "증가했습니다": 5873,
      "전체의": 5874,
      "필요하다는": 5875,
      "경영전략": 5876,
      "서비스가": 5877,
      "성과에": 5878,
      "성과관리": 5879,
      "기능이": 5880,
      "표현한": 5881,
      "##ory": 5882,
      "이미지에는": 5883,
      "##ant": 5884,
      "프로그램이": 5885,
      "고려한": 5886,
      "부분의": 5887,
      "것이라고": 5888,
      "등급으로": 5889,
      "사람들이": 5890,
      "##ash": 5891,
      "문구는": 5892,
      "다루며": 5893,
      "확보를": 5894,
      "성장을": 5895,
      "형식의": 5896,
      "부서를": 5897,
      "파악하고": 5898,
      "산업의": 5899,
      "예시로는": 5900,
      "본문은": 5901,
      "신뢰성을": 5902,
      "기대효과": 5903,
      "모델을": 5904,
      "목표원가를": 5905,
      "도식화한": 5906,
      "교통인프라": 5907,
      "점유율을": 5908,
      "##igh": 5909,
      "우수한": 5910,
      "전망을": 5911,
      "Strategies": 5912,
      "모니터링": 5913,
      "중소기업": 5914,
      "일회성": 5915,
      "Drawing": 5916,
      "Group": 5917,
      "##cept": 5918,
      "패러다임": 5919,
      "이벤트": 5920,
      "2년": 5921,
      "43": 5922,
      "53": 5923,
      "5단계": 5924,
      "600": 5925,
      "72": 5926,
      "74": 5927,
      "BGA": 5928,
      "Core": 5929,
      "Do": 5930,
      "IF": 5931,
      "LI": 5932,
      "On": 5933,
      "SE": 5934,
      "WH": 5935,
      "○○": 5936,
      "같이": 5937,
      "것이며": 5938,
      "계측": 5939,
      "곱하여": 5940,
      "공차": 5941,
      "교훈": 5942,
      "그의": 5943,
      "납세": 5944,
      "내수": 5945,
      "노트": 5946,
      "노력을": 5947,
      "논의": 5948,
      "뛰어": 5949,
      "레벨": 5950,
      "말하고": 5951,
      "벤치": 5952,
      "부착": 5953,
      "불합": 5954,
      "불리한": 5955,
      "상자로": 5956,
      "생애": 5957,
      "성적": 5958,
      "소화": 5959,
      "수상": 5960,
      "신속": 5961,
      "실습": 5962,
      "아시아": 5963,
      "않을": 5964,
      "업종": 5965,
      "위하여": 5966,
      "일체": 5967,
      "임을": 5968,
      "작동": 5969,
      "재정": 5970,
      "저하": 5971,
      "전화": 5972,
      "제기": 5973,
      "중시": 5974,
      "중인": 5975,
      "중복": 5976,
      "지점": 5977,
      "지향": 5978,
      "진입": 5979,
      "진보": 5980,
      "책정": 5981,
      "체험": 5982,
      "초록": 5983,
      "총괄": 5984,
      "취급": 5985,
      "컨셉": 5986,
      "코팅": 5987,
      "타임": 5988,
      "트리": 5989,
      "특성을": 5990,
      "피라미": 5991,
      "하였습니다": 5992,
      "합의": 5993,
      "협업": 5994,
      "확산": 5995,
      "회복": 5996,
      "희망": 5997,
      "##시적": 5998,
      "##te": 5999,
      "##ience": 6000,
      "##식이": 6001,
      "##금이": 6002,
      "##지의": 6003,
      "##로그": 6004,
      "##보다는": 6005,
      "##스코": 6006,
      "##일에": 6007,
      "##러스": 6008,
      "##들로": 6009,
      "##우는": 6010,
      "##구입": 6011,
      "##운전": 6012,
      "##디오": 6013,
      "##차대": 6014,
      "##받는": 6015,
      "##18": 6016,
      "##cy": 6017,
      "##ccess": 6018,
      "##배분": 6019,
      "##뉴얼": 6020,
      "##칭을": 6021,
      "##먼트": 6022,
      "##카드": 6023,
      "강조를": 6024,
      "강조됩니다": 6025,
      "나타났": 6026,
      "평가하고": 6027,
      "평가등급": 6028,
      "목표달성": 6029,
      "사용한": 6030,
      "생산능력": 6031,
      "계획이": 6032,
      "대해서는": 6033,
      "요소에": 6034,
      "작성된": 6035,
      "작성하고": 6036,
      "##되었음을": 6037,
      "개선과": 6038,
      "분석의": 6039,
      "분석이": 6040,
      "정보와": 6041,
      "과정으로": 6042,
      "매출과": 6043,
      "검은색이": 6044,
      "그래프와": 6045,
      "증가율": 6046,
      "텍스트의": 6047,
      "필요성": 6048,
      "경영의": 6049,
      "경영혁신": 6050,
      "시장에": 6051,
      "발생하며": 6052,
      "가치가": 6053,
      "프로세스에": 6054,
      "적용되는": 6055,
      "공정을": 6056,
      "실적관리": 6057,
      "부품별": 6058,
      "부품사양": 6059,
      "배치하여": 6060,
      "추진절차": 6061,
      "진행되는": 6062,
      "확인하고": 6063,
      "시스템과": 6064,
      "영업외": 6065,
      "시간당": 6066,
      "차이점을": 6067,
      "일정한": 6068,
      "이루어지는": 6069,
      "되어있고": 6070,
      "내부의": 6071,
      "일반적인": 6072,
      "아이템": 6073,
      "목적에": 6074,
      "재고의": 6075,
      "TECH": 6076,
      "2001년부터": 6077,
      "현장에서": 6078,
      "비고란": 6079,
      "30대": 6080,
      "요구되는": 6081,
      "현재가치": 6082,
      "2002년부터": 6083,
      "##ility": 6084,
      "비전과": 6085,
      "손익계산서": 6086,
      "미래의": 6087,
      "상황에": 6088,
      "12월까지": 6089,
      "출하검사": 6090,
      "연두색과": 6091,
      "기법을": 6092,
      "도출하는": 6093,
      "##환경의": 6094,
      "차별화된": 6095,
      "의사소통의": 6096,
      "하나의": 6097,
      "표준원가를": 6098,
      "Based": 6099,
      "##formation": 6100,
      "적합한": 6101,
      "##perience": 6102,
      "패널이": 6103,
      "이하로": 6104,
      "맞춤형": 6105,
      "천장에는": 6106,
      "투명한": 6107,
      "##ucture": 6108,
      "전통적": 6109,
      "그러데이션": 6110,
      "소모품": 6111,
      "자주색": 6112,
      "유지보수": 6113,
      "05": 6114,
      "00년": 6115,
      "39": 6116,
      "47": 6117,
      "56": 6118,
      "6개의": 6119,
      "89": 6120,
      "De": 6121,
      "IE": 6122,
      "ID": 6123,
      "Mer": 6124,
      "Meas": 6125,
      "PER": 6126,
      "Se": 6127,
      "간이": 6128,
      "거리": 6129,
      "것임을": 6130,
      "결근": 6131,
      "국민": 6132,
      "글자를": 6133,
      "금년도": 6134,
      "기둥": 6135,
      "꺾은": 6136,
      "내에": 6137,
      "높으며": 6138,
      "뉴스": 6139,
      "단점": 6140,
      "드라마": 6141,
      "마음": 6142,
      "바라": 6143,
      "베이지": 6144,
      "별도": 6145,
      "보였습니다": 6146,
      "살펴": 6147,
      "삼각형": 6148,
      "서류": 6149,
      "성명": 6150,
      "속도": 6151,
      "아동": 6152,
      "역사": 6153,
      "옅은": 6154,
      "오션": 6155,
      "외화": 6156,
      "외관": 6157,
      "요건": 6158,
      "유용": 6159,
      "유아": 6160,
      "유럽": 6161,
      "이끌": 6162,
      "이렇게": 6163,
      "임율": 6164,
      "장착": 6165,
      "적재": 6166,
      "적힌": 6167,
      "존중": 6168,
      "즉시": 6169,
      "지방": 6170,
      "집단": 6171,
      "찍은": 6172,
      "철저": 6173,
      "축소": 6174,
      "출시": 6175,
      "크기": 6176,
      "프리": 6177,
      "하지": 6178,
      "하역": 6179,
      "합계를": 6180,
      "항만": 6181,
      "형제": 6182,
      "##장과": 6183,
      "##장에서": 6184,
      "##키는": 6185,
      "##이비": 6186,
      "##이라": 6187,
      "##된다": 6188,
      "##등의": 6189,
      "##등을": 6190,
      "##재고": 6191,
      "##vis": 6192,
      "##화에": 6193,
      "##성적": 6194,
      "##지수": 6195,
      "##인과": 6196,
      "##정신": 6197,
      "##보면": 6198,
      "##보험": 6199,
      "##스플": 6200,
      "##일정": 6201,
      "##방송": 6202,
      "##리스트": 6203,
      "##리케이션": 6204,
      "##ution": 6205,
      "##들과": 6206,
      "##법의": 6207,
      "##법을": 6208,
      "##위치": 6209,
      "##소득": 6210,
      "##했을": 6211,
      "##체를": 6212,
      "##체계를": 6213,
      "##년수": 6214,
      "##분야": 6215,
      "##구성": 6216,
      "##선으로": 6217,
      "##수수료": 6218,
      "##KI": 6219,
      "##EA": 6220,
      "##매체": 6221,
      "##공사": 6222,
      "##그룹": 6223,
      "##유지": 6224,
      "##DA": 6225,
      "##물을": 6226,
      "##협상": 6227,
      "##플리케이션": 6228,
      "##창출": 6229,
      "##렌지": 6230,
      "##’,": 6231,
      "##잔액": 6232,
      "강조하였으며": 6233,
      "항목에서": 6234,
      "항목들은": 6235,
      "평가는": 6236,
      "관리자의": 6237,
      "사용되어": 6238,
      "기업문화": 6239,
      "전략에": 6240,
      "전략목표": 6241,
      "작성하는": 6242,
      "개선이": 6243,
      "있는가": 6244,
      "작업에": 6245,
      "방법의": 6246,
      "계산에": 6247,
      "검은색입니다": 6248,
      "##원가와": 6249,
      "개발과": 6250,
      "판매계획": 6251,
      "노란색이며": 6252,
      "공정한": 6253,
      "중요하다고": 6254,
      "기능은": 6255,
      "실적과": 6256,
      "절감과": 6257,
      "##ital": 6258,
      "직무의": 6259,
      "일정과": 6260,
      "##ata": 6261,
      "##atri": 6262,
      "기록하였습니다": 6263,
      "마케팅의": 6264,
      "주황색과": 6265,
      "이익은": 6266,
      "이익률": 6267,
      "수익률": 6268,
      "계열로": 6269,
      "번째는": 6270,
      "보상을": 6271,
      "개인별": 6272,
      "노무비는": 6273,
      "순서에": 6274,
      "협상력": 6275,
      "목차로": 6276,
      "특징입니다": 6277,
      "##racti": 6278,
      "영역은": 6279,
      "시행시": 6280,
      "공급업체": 6281,
      "생산성의": 6282,
      "추가적인": 6283,
      "테두리를": 6284,
      "사내강사의": 6285,
      "본문의": 6286,
      "협력사": 6287,
      "능력과": 6288,
      "상세히": 6289,
      "수입검사": 6290,
      "창의적": 6291,
      "##unt": 6292,
      "상태를": 6293,
      "이유는": 6294,
      "##시키고": 6295,
      "Concept": 6296,
      "합계는": 6297,
      "Total": 6298,
      "시책을": 6299,
      "번호가": 6300,
      "상대방": 6301,
      "아이디어를": 6302,
      "경력개발제도": 6303,
      "갈색과": 6304,
      "지적하고": 6305,
      "Ext": 6306,
      "간단히": 6307,
      "법인세": 6308,
      "배경색이": 6309,
      "동기부여": 6310,
      "밑줄이": 6311,
      "휴대전": 6312,
      "Modif": 6313,
      "때문에": 6314,
      "Track": 6315,
      "실질적인": 6316,
      "당위성": 6317,
      "##visor": 6318,
      "##atrix": 6319,
      "##ractice": 6320,
      "04년": 6321,
      "1점": 6322,
      "1분기": 6323,
      "34": 6324,
      "49": 6325,
      "4매체": 6326,
      "88": 6327,
      "86": 6328,
      "800": 6329,
      "99": 6330,
      "92": 6331,
      "?”": 6332,
      "An": 6333,
      "Cl": 6334,
      "Cash": 6335,
      "Dem": 6336,
      "Del": 6337,
      "FKI": 6338,
      "Ma": 6339,
      "MB": 6340,
      "Mgr": 6341,
      "Oper": 6342,
      "OJT": 6343,
      "PV": 6344,
      "Pow": 6345,
      "PRO": 6346,
      "QC": 6347,
      "Red": 6348,
      "Sk": 6349,
      "UN": 6350,
      "가시": 6351,
      "간소": 6352,
      "간격": 6353,
      "갖추고": 6354,
      "경향": 6355,
      "공공": 6356,
      "귀를": 6357,
      "기입되어": 6358,
      "나의": 6359,
      "나란": 6360,
      "남성의": 6361,
      "납품": 6362,
      "년간": 6363,
      "높습니다": 6364,
      "담긴": 6365,
      "대만": 6366,
      "도달": 6367,
      "돌아": 6368,
      "돕는": 6369,
      "마인": 6370,
      "마감": 6371,
      "만드는": 6372,
      "매년": 6373,
      "미치": 6374,
      "받는": 6375,
      "방어": 6376,
      "보이지": 6377,
      "분쟁": 6378,
      "불가": 6379,
      "불만족": 6380,
      "비닐": 6381,
      "빠르게": 6382,
      "사슬": 6383,
      "생성": 6384,
      "샤넬": 6385,
      "서술": 6386,
      "소속": 6387,
      "수도": 6388,
      "스크": 6389,
      "신문": 6390,
      "실시간": 6391,
      "어학": 6392,
      "연령": 6393,
      "오렌지": 6394,
      "유니": 6395,
      "유효": 6396,
      "의뢰": 6397,
      "이야": 6398,
      "일람": 6399,
      "전후": 6400,
      "점과": 6401,
      "정미": 6402,
      "조절": 6403,
      "조화를": 6404,
      "주문": 6405,
      "중순": 6406,
      "직원의": 6407,
      "차감": 6408,
      "착수": 6409,
      "창고": 6410,
      "청정": 6411,
      "청결": 6412,
      "초래": 6413,
      "추세": 6414,
      "출력": 6415,
      "출처": 6416,
      "치수": 6417,
      "칸은": 6418,
      "캐릭": 6419,
      "태도": 6420,
      "하락": 6421,
      "하부에": 6422,
      "##시킬": 6423,
      "##eh": 6424,
      "##ib": 6425,
      "##ob": 6426,
      "##자에": 6427,
      "##사무": 6428,
      "##이스": 6429,
      "##식으로": 6430,
      "##vity": 6431,
      "##조달": 6432,
      "##동작": 6433,
      "##형의": 6434,
      "##관계를": 6435,
      "##지와": 6436,
      "##0억": 6437,
      "##리고": 6438,
      "##요인": 6439,
      "##6년": 6440,
      "##아야": 6441,
      "##TV": 6442,
      "##위에": 6443,
      "##했음을": 6444,
      "##했으나": 6445,
      "##설명": 6446,
      "##실시": 6447,
      "##선을": 6448,
      "##생활": 6449,
      "##공학": 6450,
      "##마킹": 6451,
      "##IL": 6452,
      "##량을": 6453,
      "##배경": 6454,
      "##싸고": 6455,
      "##람회": 6456,
      "##견적": 6457,
      "내용이며": 6458,
      "평가자가": 6459,
      "구성하는": 6460,
      "정리하였습니다": 6461,
      "작성한": 6462,
      "교육과": 6463,
      "파란색이": 6464,
      "파란색을": 6465,
      "물류관리": 6466,
      "운영과": 6467,
      "방식입니다": 6468,
      "##ency": 6469,
      "설계를": 6470,
      "시장을": 6471,
      "중요함을": 6472,
      "##계획의": 6473,
      "##계획서": 6474,
      "부품을": 6475,
      "##arn": 6476,
      "검정색과": 6477,
      "흐름도는": 6478,
      "수행하며": 6479,
      "일정은": 6480,
      "형태입니다": 6481,
      "종합목표": 6482,
      "1994년": 6483,
      "검토하는": 6484,
      "검토합니다": 6485,
      "되어있으며": 6486,
      "감소하는": 6487,
      "지원을": 6488,
      "일반적으로": 6489,
      "국내와": 6490,
      "수익을": 6491,
      "수익성": 6492,
      "직접경": 6493,
      "상단과": 6494,
      "빨간색과": 6495,
      "회색의": 6496,
      "소비자의": 6497,
      "사진을": 6498,
      "여러가지": 6499,
      "전문적인": 6500,
      "재료비와": 6501,
      "분류한": 6502,
      "실시합니다": 6503,
      "보고서의": 6504,
      "보고서를": 6505,
      "사항이": 6506,
      "확보하는": 6507,
      "도식입니다": 6508,
      "이해하고": 6509,
      "##사항이": 6510,
      "협상을": 6511,
      "재고자산": 6512,
      "특징으로": 6513,
      "##기준에": 6514,
      "직급과": 6515,
      "##isk": 6516,
      "홍보물": 6517,
      "현황과": 6518,
      "차지하며": 6519,
      "추가적으로": 6520,
      "질문이": 6521,
      "미국과": 6522,
      "분야에서": 6523,
      "테두리가": 6524,
      "동작을": 6525,
      "요인으로": 6526,
      "##own": 6527,
      "다이어그램으로": 6528,
      "연구소": 6529,
      "방향으로": 6530,
      "손익분기": 6531,
      "홈쇼핑의": 6532,
      "그룹의": 6533,
      "##시키기": 6534,
      "자동화": 6535,
      "합계가": 6536,
      "##eck": 6537,
      "집중화": 6538,
      "Structure": 6539,
      "하나인": 6540,
      "안정적": 6541,
      "지적사항": 6542,
      "##pervisor": 6543,
      "객관적인": 6544,
      "분장표로": 6545,
      "추구하는": 6546,
      "무균병실": 6547,
      "보험료": 6548,
      "의견을": 6549,
      "##노무비": 6550,
      "Intern": 6551,
      "분포를": 6552,
      "##count": 6553,
      "inc": 6554,
      "CHA": 6555,
      "EBIT": 6556,
      "라이프": 6557,
      "판관비": 6558,
      "Obj": 6559,
      "Extra": 6560,
      "FKII": 6561,
      "Power": 6562,
      "나란히": 6563,
      "캐릭터": 6564,
      "03": 6565,
      "1일": 6566,
      "3점": 6567,
      "67": 6568,
      "93": 6569,
      "A는": 6570,
      "A사의": 6571,
      "ABS": 6572,
      "BDF": 6573,
      "C는": 6574,
      "Fact": 6575,
      "Gra": 6576,
      "IH": 6577,
      "SO": 6578,
      "SW": 6579,
      "Ty": 6580,
      "Tim": 6581,
      "VBM": 6582,
      "WA": 6583,
      "on": 6584,
      "강력": 6585,
      "결국": 6586,
      "결함": 6587,
      "공기": 6588,
      "교체": 6589,
      "굵고": 6590,
      "나는": 6591,
      "대행": 6592,
      "도심": 6593,
      "돋보": 6594,
      "동영": 6595,
      "동서": 6596,
      "등과": 6597,
      "디스플": 6598,
      "라이트": 6599,
      "많이": 6600,
      "말하며": 6601,
      "면접": 6602,
      "문화를": 6603,
      "바이": 6604,
      "바퀴": 6605,
      "배관": 6606,
      "변수": 6607,
      "부드": 6608,
      "불가능": 6609,
      "빌딩": 6610,
      "사유": 6611,
      "설득": 6612,
      "수직": 6613,
      "순차": 6614,
      "숫자로": 6615,
      "시대": 6616,
      "얼마": 6617,
      "에는": 6618,
      "여성의": 6619,
      "연출": 6620,
      "오락": 6621,
      "오염": 6622,
      "와인": 6623,
      "외국": 6624,
      "월별로": 6625,
      "위에는": 6626,
      "인원의": 6627,
      "일의": 6628,
      "일을": 6629,
      "일치": 6630,
      "있으나": 6631,
      "자리": 6632,
      "재공": 6633,
      "적은": 6634,
      "전제": 6635,
      "전년도": 6636,
      "절대": 6637,
      "점차": 6638,
      "접수": 6639,
      "정밀": 6640,
      "정장을": 6641,
      "주간": 6642,
      "주가": 6643,
      "주류": 6644,
      "주말": 6645,
      "중량": 6646,
      "중견": 6647,
      "증거": 6648,
      "직장": 6649,
      "진출": 6650,
      "집합": 6651,
      "집행": 6652,
      "채택": 6653,
      "초점을": 6654,
      "컨텐츠": 6655,
      "테스트": 6656,
      "팀별": 6657,
      "표이며": 6658,
      "한글": 6659,
      "합격": 6660,
      "혹은": 6661,
      "##장으로": 6662,
      "##ew": 6663,
      "##기반": 6664,
      "##ling": 6665,
      "##9억": 6666,
      "##20": 6667,
      "##원에": 6668,
      "##조표": 6669,
      "##은행": 6670,
      "##색을": 6671,
      "##화하여": 6672,
      "##성에서는": 6673,
      "##았습니다": 6674,
      "##로건": 6675,
      "##4억": 6676,
      "##스의": 6677,
      "##스팅": 6678,
      "##복지": 6679,
      "##방문": 6680,
      "##부채": 6681,
      "##요원": 6682,
      "##sion": 6683,
      "##소재": 6684,
      "##했다는": 6685,
      "##했지만": 6686,
      "##우고": 6687,
      "##3억": 6688,
      "##페인트": 6689,
      "##세와": 6690,
      "##달러": 6691,
      "##선은": 6692,
      "##선정": 6693,
      "##수행": 6694,
      "##차의": 6695,
      "##내는": 6696,
      "##포인트": 6697,
      "##EED": 6698,
      "##13": 6699,
      "##IZ": 6700,
      "##량이": 6701,
      "##중시": 6702,
      "##총계": 6703,
      "##US": 6704,
      "##팀과": 6705,
      "##담당": 6706,
      "설명으로": 6707,
      "관리는": 6708,
      "구분에": 6709,
      "사용됩니다": 6710,
      "사용했습니다": 6711,
      "사용되었고": 6712,
      "원가에": 6713,
      "업무분": 6714,
      "생산에": 6715,
      "생산직": 6716,
      "요소들을": 6717,
      "작성할": 6718,
      "개선에": 6719,
      "개선안": 6720,
      "분석은": 6721,
      "정보는": 6722,
      "활용하고": 6723,
      "운영의": 6724,
      "비교적": 6725,
      "각각에": 6726,
      "증가가": 6727,
      "증가하여": 6728,
      "증가율을": 6729,
      "고객을": 6730,
      "경영방침": 6731,
      "발생할": 6732,
      "제조업": 6733,
      "제조간접": 6734,
      "기술력": 6735,
      "프로세스는": 6736,
      "##비용이": 6737,
      "기능도": 6738,
      "재료관리": 6739,
      "진행하는": 6740,
      "확인합니다": 6741,
      "시스템이": 6742,
      "역할에": 6743,
      "달성하는": 6744,
      "결과에": 6745,
      "000원의": 6746,
      "지급률": 6747,
      "##항목으로": 6748,
      "구축하는": 6749,
      "이익이": 6750,
      "페이지입니다": 6751,
      "번째로": 6752,
      "보라색으로": 6753,
      "매출액을": 6754,
      "금액은": 6755,
      "##활동과": 6756,
      "실시하며": 6757,
      "사항에": 6758,
      "우측에": 6759,
      "담당합니다": 6760,
      "협상의": 6761,
      "고정비와": 6762,
      "부문에서는": 6763,
      "부서의": 6764,
      "유형별": 6765,
      "불량품": 6766,
      "불량률": 6767,
      "발전을": 6768,
      "20대": 6769,
      "도형이": 6770,
      "지역은": 6771,
      "점검해야": 6772,
      "여부와": 6773,
      "예상효과": 6774,
      "화면을": 6775,
      "도표로": 6776,
      "150": 6777,
      "2005년까지": 6778,
      "부족한": 6779,
      "실천사례": 6780,
      "연계된": 6781,
      "적절히": 6782,
      "원가계산의": 6783,
      "외주가공": 6784,
      "깔끔하게": 6785,
      "운반비": 6786,
      "문제점과": 6787,
      "진단보고서": 6788,
      "할인율": 6789,
      "무엇을": 6790,
      "소요되는": 6791,
      "Supervisor": 6792,
      "이루어지고": 6793,
      "재질로": 6794,
      "어려운": 6795,
      "Special": 6796,
      "피드백을": 6797,
      "가중치": 6798,
      "Point": 6799,
      "무균수": 6800,
      "인적자원": 6801,
      "패턴을": 6802,
      "노랑색": 6803,
      "점진적으로": 6804,
      "업무흐름의": 6805,
      "패키지": 6806,
      "##risis": 6807,
      "작업표준시간": 6808,
      "교통인프라박": 6809,
      "LINE": 6810,
      "진보적": 6811,
      "나타났습니다": 6812,
      "Modifier": 6813,
      "incentive": 6814,
      "CHANG": 6815,
      "IHI": 6816,
      "WACC": 6817,
      "강력한": 6818,
      "디스플레이": 6819,
      "중견기업": 6820,
      "08": 6821,
      "01년": 6822,
      "1인": 6823,
      "400": 6824,
      "5개의": 6825,
      "73": 6826,
      "80년대": 6827,
      "?\"": 6828,
      "Action": 6829,
      "ANT": 6830,
      "Ash": 6831,
      "Br": 6832,
      "BC": 6833,
      "Cre": 6834,
      "Case": 6835,
      "DB": 6836,
      "Des": 6837,
      "Et": 6838,
      "EF": 6839,
      "Equ": 6840,
      "Matrix": 6841,
      "OC": 6842,
      "Ox": 6843,
      "Pre": 6844,
      "POI": 6845,
      "Practice": 6846,
      "Risk": 6847,
      "TS": 6848,
      "TFT": 6849,
      "and": 6850,
      "for": 6851,
      "간디": 6852,
      "강한": 6853,
      "갖고": 6854,
      "갖추": 6855,
      "건수를": 6856,
      "경기": 6857,
      "경비는": 6858,
      "곤란": 6859,
      "곱한": 6860,
      "공식을": 6861,
      "그중": 6862,
      "나라": 6863,
      "남동": 6864,
      "낮아": 6865,
      "내려": 6866,
      "노사": 6867,
      "눈에": 6868,
      "뉴미디어": 6869,
      "느끼": 6870,
      "다운": 6871,
      "대차대": 6872,
      "되었습니다": 6873,
      "매니": 6874,
      "명료": 6875,
      "명세": 6876,
      "무료": 6877,
      "물량": 6878,
      "미상각": 6879,
      "배열": 6880,
      "배정": 6881,
      "배송": 6882,
      "범주": 6883,
      "보면": 6884,
      "부과": 6885,
      "삽입": 6886,
      "서커": 6887,
      "설비용": 6888,
      "성별": 6889,
      "세전": 6890,
      "세번째": 6891,
      "소방": 6892,
      "소유": 6893,
      "손을": 6894,
      "수시": 6895,
      "순위를": 6896,
      "슈퍼": 6897,
      "슈바이": 6898,
      "시운전": 6899,
      "아웃": 6900,
      "앞에": 6901,
      "애플리케이션": 6902,
      "어느": 6903,
      "연공": 6904,
      "연노": 6905,
      "영화": 6906,
      "올바": 6907,
      "완화": 6908,
      "운동": 6909,
      "이탈": 6910,
      "이메일": 6911,
      "일관": 6912,
      "임직": 6913,
      "입은": 6914,
      "입수": 6915,
      "잘못": 6916,
      "전면": 6917,
      "접촉": 6918,
      "제반": 6919,
      "조명": 6920,
      "줍니다": 6921,
      "증폭기": 6922,
      "직군": 6923,
      "진도": 6924,
      "짓고": 6925,
      "참석": 6926,
      "채워져": 6927,
      "체질": 6928,
      "총자산": 6929,
      "친환경": 6930,
      "통상": 6931,
      "피로": 6932,
      "후에는": 6933,
      "##ey": 6934,
      "##이커": 6935,
      "##기로": 6936,
      "##여유": 6937,
      "##었음을": 6938,
      "##되도록": 6939,
      "##인상": 6940,
      "##스러운": 6941,
      "##예정": 6942,
      "##전력": 6943,
      "##가를": 6944,
      "##리지": 6945,
      "##리더": 6946,
      "##서가": 6947,
      "##부비": 6948,
      "##법인": 6949,
      "##세가": 6950,
      "##발전": 6951,
      "##발생": 6952,
      "##구분": 6953,
      "##구를": 6954,
      "##실의": 6955,
      "##차료": 6956,
      "##르는": 6957,
      "##pe": 6958,
      "##트가": 6959,
      "##개로": 6960,
      "##근로": 6961,
      "##누적": 6962,
      "##유아": 6963,
      "##채권": 6964,
      "##연결": 6965,
      "##느냐": 6966,
      "##UNG": 6967,
      "##없이": 6968,
      "##냈습니다": 6969,
      "##릅니다": 6970,
      "##칼럼": 6971,
      "##하고자": 6972,
      "제시되었습니다": 6973,
      "평가하며": 6974,
      "목표가": 6975,
      "사용사업": 6976,
      "생산실적": 6977,
      "나타내어": 6978,
      "계획은": 6979,
      "##관리가": 6980,
      "요소의": 6981,
      "작성해야": 6982,
      "제품은": 6983,
      "교육방법": 6984,
      "개선반": 6985,
      "파란색이고": 6986,
      "분석에": 6987,
      "정보화": 6988,
      "##ery": 6989,
      "기준의": 6990,
      "기준서의": 6991,
      "있는지를": 6992,
      "작업이": 6993,
      "폰트와": 6994,
      "물류센터": 6995,
      "매출을": 6996,
      "계산과": 6997,
      "계산하고": 6998,
      "조직도를": 6999,
      "##원가가": 7000,
      "비교해": 7001,
      "판매비": 7002,
      "표시되고": 7003,
      "필요성이": 7004,
      "발생했습니다": 7005,
      "설정과": 7006,
      "설정되며": 7007,
      "##이익률": 7008,
      "기술을": 7009,
      "프로세스와": 7010,
      "197": 7011,
      "196": 7012,
      "공정에서": 7013,
      "기능과": 7014,
      "제공됩니다": 7015,
      "##가지로": 7016,
      "나열하여": 7017,
      "표현하여": 7018,
      "추진계획": 7019,
      "디자인되어": 7020,
      "##ans": 7021,
      "10년": 7022,
      "차이에": 7023,
      "회사는": 7024,
      "회사가": 7025,
      "흐름도를": 7026,
      "수행하고": 7027,
      "##etency": 7028,
      "종합원가계산": 7029,
      "Information": 7030,
      "데이터가": 7031,
      "대비되는": 7032,
      "내부를": 7033,
      "등급에": 7034,
      "등급별": 7035,
      "이익계획": 7036,
      "사람은": 7037,
      "사람들의": 7038,
      "매출액과": 7039,
      "구체적": 7040,
      "구체화": 7041,
      "다루는": 7042,
      "중앙의": 7043,
      "보상의": 7044,
      "차트의": 7045,
      "이해관계": 7046,
      "담당하는": 7047,
      "담당하며": 7048,
      "고정비는": 7049,
      "부문에서": 7050,
      "왼쪽에": 7051,
      "유형에": 7052,
      "유형으로": 7053,
      "효율적으로": 7054,
      "기계의": 7055,
      "불량을": 7056,
      "현장의": 7057,
      "도형은": 7058,
      "현재의": 7059,
      "실패를": 7060,
      "차지합니다": 7061,
      "추가로": 7062,
      "인력운영": 7063,
      "50대": 7064,
      "미국의": 7065,
      "분야별": 7066,
      "테두리의": 7067,
      "##사업부": 7068,
      "공수를": 7069,
      "일부는": 7070,
      "지표로": 7071,
      "종류와": 7072,
      "##cher": 7073,
      "##기능은": 7074,
      "정도로": 7075,
      "제조원가에": 7076,
      "창의혁신": 7077,
      "수량표준": 7078,
      "규모별": 7079,
      "감가상각비는": 7080,
      "정책을": 7081,
      "전시회": 7082,
      "원가절감의": 7083,
      "PIB": 7084,
      "40대": 7085,
      "000원으로": 7086,
      "사고방식": 7087,
      "대표이": 7088,
      "기회를": 7089,
      "핵심가치의": 7090,
      "과거의": 7091,
      "##등급으로": 7092,
      "3가지로": 7093,
      "일본의": 7094,
      "가동율": 7095,
      "##차이즈": 7096,
      "업무내용은": 7097,
      "안정적인": 7098,
      "체크리스트": 7099,
      "인물의": 7100,
      "가로축에는": 7101,
      "적합성": 7102,
      "동안의": 7103,
      "존재하며": 7104,
      "수선비": 7105,
      "객관적": 7106,
      "경험을": 7107,
      "가중치를": 7108,
      "주식회사": 7109,
      "원가관리의": 7110,
      "##orea": 7111,
      "교류회": 7112,
      "까지의": 7113,
      "당기순이익은": 7114,
      "타원형": 7115,
      "세로로": 7116,
      "그녀는": 7117,
      "##otor": 7118,
      "##하려는": 7119,
      "경영지원팀": 7120,
      "간결한": 7121,
      "Product": 7122,
      "LCD": 7123,
      "Merit": 7124,
      "꺾은선": 7125,
      "Internet": 7126,
      "Objec": 7127,
      "Grade": 7128,
      "Asher": 7129,
      "Etcher": 7130,
      "Oxide": 7131,
      "POINT": 7132,
      "대차대조표": 7133,
      "서커스": 7134,
      "슈바이처": 7135,
      "2일": 7136,
      "3S": 7137,
      "3개월": 7138,
      "4년": 7139,
      "4단계로": 7140,
      "55": 7141,
      "6개": 7142,
      "750": 7143,
      "84": 7144,
      "83": 7145,
      "81": 7146,
      "9에": 7147,
      "90년대": 7148,
      "Ad": 7149,
      "Bo": 7150,
      "CP": 7151,
      "CFT": 7152,
      "D는": 7153,
      "DF": 7154,
      "Direct": 7155,
      "Data": 7156,
      "EVA": 7157,
      "LP": 7158,
      "MA": 7159,
      "MP": 7160,
      "Oth": 7161,
      "Pur": 7162,
      "RE": 7163,
      "S는": 7164,
      "Sel": 7165,
      "Table": 7166,
      "Un": 7167,
      "Work": 7168,
      "pro": 7169,
      "sp": 7170,
      "가전": 7171,
      "가까": 7172,
      "간호": 7173,
      "감지": 7174,
      "건강": 7175,
      "검수": 7176,
      "과도": 7177,
      "관해": 7178,
      "궁극": 7179,
      "근본": 7180,
      "꾸준": 7181,
      "높게": 7182,
      "다면": 7183,
      "대형": 7184,
      "대지": 7185,
      "독점": 7186,
      "되고": 7187,
      "둥근": 7188,
      "라벨": 7189,
      "램버스": 7190,
      "마무": 7191,
      "만화": 7192,
      "만든": 7193,
      "매뉴얼": 7194,
      "메모리": 7195,
      "모색": 7196,
      "민감": 7197,
      "밀러": 7198,
      "바다": 7199,
      "바꾸": 7200,
      "받고": 7201,
      "백만원": 7202,
      "법률": 7203,
      "베이비": 7204,
      "복합": 7205,
      "빨강": 7206,
      "사망": 7207,
      "사건": 7208,
      "사외": 7209,
      "색조": 7210,
      "생존": 7211,
      "설문": 7212,
      "세율": 7213,
      "센터": 7214,
      "수용": 7215,
      "수동": 7216,
      "슬로건": 7217,
      "시계": 7218,
      "신입": 7219,
      "신소재": 7220,
      "심플": 7221,
      "아기": 7222,
      "않음": 7223,
      "않으며": 7224,
      "양산": 7225,
      "양식을": 7226,
      "연평균": 7227,
      "오리": 7228,
      "올라": 7229,
      "우량": 7230,
      "원활": 7231,
      "위의": 7232,
      "위에서": 7233,
      "위주의": 7234,
      "유연": 7235,
      "의의": 7236,
      "의도": 7237,
      "이로": 7238,
      "인류": 7239,
      "일시": 7240,
      "임명": 7241,
      "자율": 7242,
      "재경": 7243,
      "재작업": 7244,
      "전에": 7245,
      "정량": 7246,
      "정규직": 7247,
      "제출": 7248,
      "제판": 7249,
      "제일": 7250,
      "제도를": 7251,
      "조회": 7252,
      "주성": 7253,
      "중부": 7254,
      "진열": 7255,
      "착상": 7256,
      "촬영": 7257,
      "추이": 7258,
      "출산": 7259,
      "취업": 7260,
      "칠해져": 7261,
      "칸에는": 7262,
      "커튼": 7263,
      "코칭": 7264,
      "탐색": 7265,
      "통계": 7266,
      "펀드": 7267,
      "포지": 7268,
      "포괄": 7269,
      "표에": 7270,
      "하드": 7271,
      "하지만": 7272,
      "협의": 7273,
      "호칭을": 7274,
      "화재": 7275,
      "환기": 7276,
      "##과세": 7277,
      "##eed": 7278,
      "##ac": 7279,
      "##ati": 7280,
      "##ix": 7281,
      "##자들이": 7282,
      "##이지만": 7283,
      "##ld": 7284,
      "##der": 7285,
      "##2억": 7286,
      "##원을": 7287,
      "##되면": 7288,
      "##형과": 7289,
      "##하라": 7290,
      "##정한": 7291,
      "##보호": 7292,
      "##일을": 7293,
      "##영역": 7294,
      "##가의": 7295,
      "##명한": 7296,
      "##율에": 7297,
      "##제를": 7298,
      "##법은": 7299,
      "##체가": 7300,
      "##LC": 7301,
      "##AL": 7302,
      "##대와": 7303,
      "##상황": 7304,
      "##해진": 7305,
      "##선의": 7306,
      "##수로": 7307,
      "##수단": 7308,
      "##그마": 7309,
      "##1억": 7310,
      "##네트워크": 7311,
      "##활용": 7312,
      "##표가": 7313,
      "##경제": 7314,
      "##목적": 7315,
      "##창고": 7316,
      "##손실": 7317,
      "##런스": 7318,
      "##추구": 7319,
      "##하는데": 7320,
      "항목인": 7321,
      "제시하는": 7322,
      "구성과": 7323,
      "관리항목": 7324,
      "사용하는": 7325,
      "원가가": 7326,
      "기업정보": 7327,
      "전략으로": 7328,
      "생산기술": 7329,
      "계획수립": 7330,
      "요소인": 7331,
      "작성의": 7332,
      "작성기법": 7333,
      "검은색의": 7334,
      "조직도는": 7335,
      "운영됩니다": 7336,
      "##ond": 7337,
      "구조는": 7338,
      "구조물": 7339,
      "구조적으로": 7340,
      "사업자": 7341,
      "증가할": 7342,
      "증가하고": 7343,
      "증가하며": 7344,
      "증가했으며": 7345,
      "고객사": 7346,
      "변화하는": 7347,
      "노란색의": 7348,
      "개념의": 7349,
      "필요성과": 7350,
      "설정을": 7351,
      "서비스는": 7352,
      "중요도를": 7353,
      "수립에": 7354,
      "나열한": 7355,
      "추진요령": 7356,
      "재료비의": 7357,
      "이미지로": 7358,
      "디자인의": 7359,
      "경쟁이": 7360,
      "가능하고": 7361,
      "%)'": 7362,
      "시간의": 7363,
      "바탕의": 7364,
      "유지하며": 7365,
      "직무평가": 7366,
      "흐름과": 7367,
      "나누어서": 7368,
      "그림을": 7369,
      "1993년": 7370,
      "가격표준": 7371,
      "##가치를": 7372,
      "결정됩니다": 7373,
      "기록한": 7374,
      "기록하며": 7375,
      "프로그램에": 7376,
      "향상도": 7377,
      "주황색의": 7378,
      "부분에": 7379,
      "구축의": 7380,
      "수치와": 7381,
      "계열이": 7382,
      "계열이고": 7383,
      "페이지에서는": 7384,
      "연결됩니다": 7385,
      "상단은": 7386,
      "사람과": 7387,
      "사람을": 7388,
      "절차에": 7389,
      "금액과": 7390,
      "소비자가": 7391,
      "분류를": 7392,
      "##방법의": 7393,
      "하는가": 7394,
      "초록색이고": 7395,
      "도식으로": 7396,
      "노무비의": 7397,
      "아이의": 7398,
      "고정비를": 7399,
      "부문은": 7400,
      "부서가": 7401,
      "부서별": 7402,
      "녹색과": 7403,
      "재고관리": 7404,
      "단위별": 7405,
      "효율적": 7406,
      "발전회사": 7407,
      "영역으로": 7408,
      "산업별": 7409,
      "201": 7410,
      "좌측의": 7411,
      "그라데이션이": 7412,
      "비고에": 7413,
      "원칙과": 7414,
      "안전사고": 7415,
      "점검하고": 7416,
      "비율로": 7417,
      "업체의": 7418,
      "여부에": 7419,
      "##정보를": 7420,
      "경제성": 7421,
      "현금유": 7422,
      "임금관리": 7423,
      "지식을": 7424,
      "단가를": 7425,
      "신뢰성": 7426,
      "창의력": 7427,
      "도표입니다": 7428,
      "2005년에는": 7429,
      "단순화": 7430,
      "그룹은": 7431,
      "사이에": 7432,
      "사이클": 7433,
      "Cons": 7434,
      "자동제어": 7435,
      "##ures": 7436,
      "행동을": 7437,
      "경비가": 7438,
      "##구조를": 7439,
      "위기감을": 7440,
      "기초개념": 7441,
      "방법론을": 7442,
      "수율은": 7443,
      "예정입니다": 7444,
      "Pay의": 7445,
      "무엇인가": 7446,
      "The": 7447,
      "간략한": 7448,
      "표지로": 7449,
      "##제안서": 7450,
      "(%),": 7451,
      "##시스템의": 7452,
      "Support": 7453,
      "Success": 7454,
      "구분선이": 7455,
      "Experience": 7456,
      "순이익을": 7457,
      "메뉴가": 7458,
      "Manager": 7459,
      "자세하게": 7460,
      "능률차이": 7461,
      "##LAN": 7462,
      "Community": 7463,
      "신고는": 7464,
      "조업시간": 7465,
      "경영진의": 7466,
      "정렬되어": 7467,
      "##산업의": 7468,
      "글자색은": 7469,
      "##ivery": 7470,
      "##ization": 7471,
      "레이아웃을": 7472,
      "CONT": 7473,
      "완전연결": 7474,
      "연혁을": 7475,
      "##위원회": 7476,
      "과잉생산": 7477,
      "Bench": 7478,
      "Goals": 7479,
      "##LLING": 7480,
      "SELLING": 7481,
      "뛰어난": 7482,
      "벤치마킹": 7483,
      "신속한": 7484,
      "살펴보면": 7485,
      "Anal": 7486,
      "Skill": 7487,
      "간소화": 7488,
      "스크랩": 7489,
      "유니트": 7490,
      "EBITDA": 7491,
      "Factor": 7492,
      "Time": 7493,
      "순차적으로": 7494,
      "Brand": 7495,
      "연노란색": 7496,
      "올바른": 7497,
      "DFSS": 7498,
      "Others": 7499,
      "0부터": 7500,
      "03년": 7501,
      "2조": 7502,
      "2점": 7503,
      "2분기": 7504,
      "3차": 7505,
      "58": 7506,
      "64": 7507,
      "87": 7508,
      "96": 7509,
      "AM": 7510,
      "CA": 7511,
      "Crisis": 7512,
      "DI": 7513,
      "Dig": 7514,
      "ES": 7515,
      "FV": 7516,
      "For": 7517,
      "Ide": 7518,
      "Li": 7519,
      "MM": 7520,
      "My": 7521,
      "MC": 7522,
      "Mem": 7523,
      "O수는": 7524,
      "PP": 7525,
      "PAR": 7526,
      "PEC": 7527,
      "Rel": 7528,
      "SA": 7529,
      "SC": 7530,
      "SBS": 7531,
      "TO": 7532,
      "TLC": 7533,
      "값으로": 7534,
      "갖춘": 7535,
      "계단": 7536,
      "공략": 7537,
      "공휴": 7538,
      "구할": 7539,
      "구리": 7540,
      "나눠": 7541,
      "남녀": 7542,
      "너무": 7543,
      "넘어": 7544,
      "논리": 7545,
      "다룬": 7546,
      "다이아": 7547,
      "단면": 7548,
      "더하고": 7549,
      "도로": 7550,
      "도요": 7551,
      "등장": 7552,
      "따뜻": 7553,
      "레드": 7554,
      "로직": 7555,
      "마스터": 7556,
      "많다": 7557,
      "말풍": 7558,
      "맞추고": 7559,
      "매각": 7560,
      "매수": 7561,
      "멀티": 7562,
      "명의": 7563,
      "모집": 7564,
      "문장이": 7565,
      "미달": 7566,
      "바로": 7567,
      "배점을": 7568,
      "분임": 7569,
      "불확": 7570,
      "비해": 7571,
      "색이": 7572,
      "성취": 7573,
      "송출": 7574,
      "스위치": 7575,
      "신호": 7576,
      "실태": 7577,
      "심텍": 7578,
      "앉아": 7579,
      "알아": 7580,
      "앞에는": 7581,
      "양적": 7582,
      "언론": 7583,
      "얻을": 7584,
      "없습니다": 7585,
      "에티": 7586,
      "엔진": 7587,
      "여성이": 7588,
      "연료": 7589,
      "열거": 7590,
      "영유아": 7591,
      "용도": 7592,
      "우위": 7593,
      "우위를": 7594,
      "원이": 7595,
      "의무": 7596,
      "의욕": 7597,
      "이력": 7598,
      "일상": 7599,
      "입안": 7600,
      "있음": 7601,
      "자백": 7602,
      "자녀": 7603,
      "장단": 7604,
      "재해": 7605,
      "저렴": 7606,
      "전송": 7607,
      "점수를": 7608,
      "점수가": 7609,
      "정직": 7610,
      "정신": 7611,
      "정산": 7612,
      "정도를": 7613,
      "존경": 7614,
      "주력": 7615,
      "주부": 7616,
      "준비의": 7617,
      "중기업": 7618,
      "지게": 7619,
      "지휘": 7620,
      "차분": 7621,
      "창문": 7622,
      "총이익": 7623,
      "최신": 7624,
      "최우": 7625,
      "컨설": 7626,
      "특이": 7627,
      "포트": 7628,
      "포스코": 7629,
      "하면": 7630,
      "했으며": 7631,
      "현행": 7632,
      "혼합": 7633,
      "화가": 7634,
      "##tep": 7635,
      "##oc": 7636,
      "##ose": 7637,
      "##사원의": 7638,
      "##line": 7639,
      "##ver": 7640,
      "##25": 7641,
      "##원인": 7642,
      "##여금": 7643,
      "##여부": 7644,
      "##금을": 7645,
      "##색의": 7646,
      "##되기": 7647,
      "##되지만": 7648,
      "##형이": 7649,
      "##형을": 7650,
      "##관은": 7651,
      "##성공": 7652,
      "##았으며": 7653,
      "##지급": 7654,
      "##케어": 7655,
      "##정과": 7656,
      "##보상": 7657,
      "##복을": 7658,
      "##고과": 7659,
      "##명에": 7660,
      "##리가": 7661,
      "##서에": 7662,
      "##제휴": 7663,
      "##품목": 7664,
      "##점에": 7665,
      "##였고": 7666,
      "##sis": 7667,
      "##민국": 7668,
      "##소싱": 7669,
      "##분쟁": 7670,
      "##세로": 7671,
      "##계발": 7672,
      "##오는": 7673,
      "##QM": 7674,
      "##PUT": 7675,
      "##실한": 7676,
      "##실행": 7677,
      "##EM": 7678,
      "##르고": 7679,
      "##테크": 7680,
      "##매출": 7681,
      "##함과": 7682,
      "##함에": 7683,
      "##RA": 7684,
      "##RE": 7685,
      "##C는": 7686,
      "##트릭": 7687,
      "##액과": 7688,
      "##cs": 7689,
      "##표시": 7690,
      "##량지표": 7691,
      "##DR": 7692,
      "##파트": 7693,
      "##값은": 7694,
      "##hip": 7695,
      "##협회": 7696,
      "##턴트": 7697,
      "##으로서": 7698,
      "설명은": 7699,
      "##000": 7700,
      "제시되며": 7701,
      "대한민국": 7702,
      "포함되고": 7703,
      "구성은": 7704,
      "목표입니다": 7705,
      "사용된": 7706,
      "사용되며": 7707,
      "사용하였고": 7708,
      "업무에": 7709,
      "단계에서의": 7710,
      "요소임을": 7711,
      "개선은": 7712,
      "개선할": 7713,
      "개선제안": 7714,
      "분석할": 7715,
      "작업자가": 7716,
      "품질원가": 7717,
      "활용됩니다": 7718,
      "계산한": 7719,
      "조직은": 7720,
      "운영하는": 7721,
      "담고있습니다": 7722,
      "가지며": 7723,
      "사업타": 7724,
      "사업단위": 7725,
      "고객과의": 7726,
      "변화선": 7727,
      "활동은": 7728,
      "판매관리": 7729,
      "박스에는": 7730,
      "표시되었습니다": 7731,
      "개념으로": 7732,
      "경영성과": 7733,
      "설계의": 7734,
      "설계되었습니다": 7735,
      "##별로는": 7736,
      "제조공정": 7737,
      "성과와": 7738,
      "194": 7739,
      "효과적": 7740,
      "효과로는": 7741,
      "적용합니다": 7742,
      "공정의": 7743,
      "중요성": 7744,
      "##하였음을": 7745,
      "##비용의": 7746,
      "##계획수립": 7747,
      "기능의": 7748,
      "실적누적": 7749,
      "부품이": 7750,
      "표현하는": 7751,
      "##되는지": 7752,
      "재료단가": 7753,
      "디자인과": 7754,
      "영업관리": 7755,
      "영업조직": 7756,
      "가능하며": 7757,
      "산출됩니다": 7758,
      "설비에": 7759,
      "회사에서": 7760,
      "달성할": 7761,
      "그림과": 7762,
      "검토가": 7763,
      "검토를": 7764,
      "검토하며": 7765,
      "감소하고": 7766,
      "구매단가": 7767,
      "대비를": 7768,
      "프로그램은": 7769,
      "고려사항": 7770,
      "혁신의": 7771,
      "부분이": 7772,
      "##항목과": 7773,
      "구축하고": 7774,
      "등급을": 7775,
      "직접재료비": 7776,
      "회색과": 7777,
      "실행하는": 7778,
      "##활동은": 7779,
      "Cost의": 7780,
      "전문강사": 7781,
      "특허분쟁": 7782,
      "##방법론": 7783,
      "심사팀": 7784,
      "고정자산": 7785,
      "고정비가": 7786,
      "상품관리": 7787,
      "자재의": 7788,
      "특정한": 7789,
      "이상을": 7790,
      "특징과": 7791,
      "인사팀": 7792,
      "준비시간": 7793,
      "파악하여": 7794,
      "##자로부터": 7795,
      "좌측에": 7796,
      "현장을": 7797,
      "공급자": 7798,
      "관계자": 7799,
      "질문은": 7800,
      "##전략을": 7801,
      "분야에서는": 7802,
      "수요가": 7803,
      "점검합니다": 7804,
      "기간은": 7805,
      "강화하는": 7806,
      "간접재료": 7807,
      "요인이": 7808,
      "인터넷을": 7809,
      "산정하고": 7810,
      "화면과": 7811,
      "화면에는": 7812,
      "투입된": 7813,
      "신뢰성과": 7814,
      "##und": 7815,
      "도표의": 7816,
      "수량과": 7817,
      "규모를": 7818,
      "기호로": 7819,
      "홈쇼핑이": 7820,
      "사회복지": 7821,
      "단순히": 7822,
      "발표자료": 7823,
      "행사장": 7824,
      "리더의": 7825,
      "목표원가의": 7826,
      "품질비용은": 7827,
      "Construction": 7828,
      "전반에": 7829,
      "접근방법": 7830,
      "##공정과": 7831,
      "외주업체": 7832,
      "##ession": 7833,
      "연두색으로": 7834,
      "노동력": 7835,
      "콘텐츠를": 7836,
      "자신이": 7837,
      "의사소통을": 7838,
      "장기적": 7839,
      "장기적인": 7840,
      "의사결정을": 7841,
      "전환되는": 7842,
      "적정성": 7843,
      "필수적": 7844,
      "경력개발의": 7845,
      "만들기": 7846,
      "NPV는": 7847,
      "2006년까지": 7848,
      "세로축에는": 7849,
      "생산량은": 7850,
      "##억원으로": 7851,
      "없는가": 7852,
      "최고의": 7853,
      "응답자": 7854,
      "LG전": 7855,
      "ETC는": 7856,
      "가중평균": 7857,
      "운송비": 7858,
      "부가가치를": 7859,
      "LOSS는": 7860,
      "장치가": 7861,
      "1998년부터": 7862,
      "벽면에": 7863,
      "나머지는": 7864,
      "근거로": 7865,
      "점선으로": 7866,
      "Thread에": 7867,
      "버튼이": 7868,
      "Check": 7869,
      ")\",": 7870,
      "Lead": 7871,
      "그녀의": 7872,
      "주변에는": 7873,
      "밀가루와": 7874,
      "판촉조직": 7875,
      "구상안": 7876,
      "휴대폰": 7877,
      "##ship": 7878,
      "Assist": 7879,
      "둘러싸고": 7880,
      "이외의": 7881,
      "복잡한": 7882,
      "신용카드": 7883,
      "주도적": 7884,
      "충분한": 7885,
      "샘플링": 7886,
      "인당생산성": 7887,
      "장면을": 7888,
      "##sition": 7889,
      "##경쟁력": 7890,
      "의약품": 7891,
      "##프로그램": 7892,
      "PSK": 7893,
      "감독자": 7894,
      "최하위": 7895,
      "Build": 7896,
      "급격히": 7897,
      "타임라인": 7898,
      "피라미드": 7899,
      "그러데이션으로": 7900,
      "휴대전화": 7901,
      "##ibility": 7902,
      "OCN": 7903,
      "TSR": 7904,
      "아웃소싱": 7905,
      "Selling": 7906,
      "마무리": 7907,
      "하드웨어": 7908,
      "Digital": 7909,
      "Idea": 7910,
      "PECVD": 7911,
      "Relation": 7912,
      "구리시": 7913,
      "분임조": 7914,
      "에티켓": 7915,
      "0으로": 7916,
      "1억": 7917,
      "1행": 7918,
      "1H": 7919,
      "1일부터": 7920,
      "2개": 7921,
      "3즉": 7922,
      "450": 7923,
      "68": 7924,
      "6시": 7925,
      "6개월": 7926,
      "7일": 7927,
      "97": 7928,
      "Best": 7929,
      "Cir": 7930,
      "F3": 7931,
      "Fit": 7932,
      "Flow": 7933,
      "High": 7934,
      "KT": 7935,
      "Korea": 7936,
      "Met": 7937,
      "Mic": 7938,
      "Non": 7939,
      "OUT": 7940,
      "Pri": 7941,
      "SY": 7942,
      "TQM": 7943,
      "Vol": 7944,
      "out": 7945,
      "rate": 7946,
      "개시": 7947,
      "개입": 7948,
      "거의": 7949,
      "건의": 7950,
      "것과": 7951,
      "것에": 7952,
      "것이고": 7953,
      "고유": 7954,
      "고딕": 7955,
      "공종": 7956,
      "과업": 7957,
      "광주": 7958,
      "구내": 7959,
      "구하는": 7960,
      "국산": 7961,
      "국외": 7962,
      "규칙": 7963,
      "기지": 7964,
      "기울": 7965,
      "끝에는": 7966,
      "남성이": 7967,
      "납세의": 7968,
      "낮고": 7969,
      "낮추": 7970,
      "높을": 7971,
      "단일": 7972,
      "대폭": 7973,
      "대규모": 7974,
      "등은": 7975,
      "따르면": 7976,
      "리스크": 7977,
      "마름": 7978,
      "맞춘": 7979,
      "매겨": 7980,
      "모터": 7981,
      "못한": 7982,
      "묘사": 7983,
      "무관": 7984,
      "문장은": 7985,
      "물리": 7986,
      "물리적": 7987,
      "미칠": 7988,
      "미디어": 7989,
      "바꿀": 7990,
      "박람회": 7991,
      "반대": 7992,
      "반드": 7993,
      "발상": 7994,
      "배제": 7995,
      "벤처": 7996,
      "변환": 7997,
      "보장": 7998,
      "보기": 7999,
      "보도": 8000,
      "보일": 8001,
      "보아": 8002,
      "보육": 8003,
      "복도": 8004,
      "분해": 8005,
      "비어": 8006,
      "비젼": 8007,
      "비롯": 8008,
      "사장": 8009,
      "사분면": 8010,
      "상당": 8011,
      "색깔": 8012,
      "서식": 8013,
      "선을": 8014,
      "선도": 8015,
      "세무": 8016,
      "손해": 8017,
      "송신": 8018,
      "수금": 8019,
      "순번": 8020,
      "스킬": 8021,
      "스포": 8022,
      "시의": 8023,
      "시범": 8024,
      "시에는": 8025,
      "시점을": 8026,
      "시너지": 8027,
      "신청": 8028,
      "안의": 8029,
      "압력": 8030,
      "에듀": 8031,
      "역시": 8032,
      "연습": 8033,
      "연속": 8034,
      "연계를": 8035,
      "운용": 8036,
      "원통": 8037,
      "원부": 8038,
      "원입니다": 8039,
      "월령": 8040,
      "위생": 8041,
      "위쪽": 8042,
      "유기": 8043,
      "유리한": 8044,
      "의존": 8045,
      "인용": 8046,
      "인력을": 8047,
      "인원이": 8048,
      "일수": 8049,
      "작게": 8050,
      "재설계": 8051,
      "저장": 8052,
      "정지": 8053,
      "제약": 8054,
      "주임": 8055,
      "증명": 8056,
      "질적": 8057,
      "질환": 8058,
      "징계": 8059,
      "찾아": 8060,
      "추적": 8061,
      "카운": 8062,
      "카탈": 8063,
      "칸이": 8064,
      "케이블": 8065,
      "크고": 8066,
      "크레": 8067,
      "통보": 8068,
      "팀의": 8069,
      "팀워크": 8070,
      "팀장의": 8071,
      "페리오": 8072,
      "편견": 8073,
      "프랜": 8074,
      "플로": 8075,
      "피스": 8076,
      "하였으며": 8077,
      "했습니다": 8078,
      "허용": 8079,
      "현상을": 8080,
      "협력을": 8081,
      "형상": 8082,
      "형광": 8083,
      "혜택": 8084,
      "환영": 8085,
      "##장관": 8086,
      "##장치": 8087,
      "##시부터": 8088,
      "##efit": 8089,
      "##gy": 8090,
      "##ast": 8091,
      "##avi": 8092,
      "##ia": 8093,
      "##이념": 8094,
      "##기한": 8095,
      "##vent": 8096,
      "##다운": 8097,
      "##급여": 8098,
      "##센트": 8099,
      "##니어": 8100,
      "##었으나": 8101,
      "##화력": 8102,
      "##화면": 8103,
      "##팅게": 8104,
      "##정착": 8105,
      "##보기": 8106,
      "##편성": 8107,
      "##예금": 8108,
      "##할인": 8109,
      "##임금": 8110,
      "##임차료": 8111,
      "##서와": 8112,
      "##부담": 8113,
      "##ud": 8114,
      "##ule": 8115,
      "##율의": 8116,
      "##율로": 8117,
      "##제의": 8118,
      "##제작": 8119,
      "##법에": 8120,
      "##소의": 8121,
      "##했던": 8122,
      "##페어": 8123,
      "##분업": 8124,
      "##대한": 8125,
      "##행동": 8126,
      "##운반": 8127,
      "##ysis": 8128,
      "##mm": 8129,
      "##건의": 8130,
      "##차입금": 8131,
      "##교통": 8132,
      "##교실": 8133,
      "##까지는": 8134,
      "##RI": 8135,
      "##pon": 8136,
      "##pose": 8137,
      "##액의": 8138,
      "##cle": 8139,
      "##표에": 8140,
      "##ICE": 8141,
      "##질을": 8142,
      "##진다는": 8143,
      "##학의": 8144,
      "##BGA": 8145,
      "##배를": 8146,
      "##XCO": 8147,
      "##Wh": 8148,
      "##중의": 8149,
      "##캘린더": 8150,
      "##몬드": 8151,
      "##),": 8152,
      "##창조": 8153,
      "##폰트": 8154,
      "##벤처": 8155,
      "##..": 8156,
      "##졌습니다": 8157,
      "##슬링": 8158,
      "##으로부터": 8159,
      "제시하여": 8160,
      "나타난": 8161,
      "나타냈습니다": 8162,
      "평가자": 8163,
      "평가할": 8164,
      "평가요소": 8165,
      "평가코스트": 8166,
      "구성원의": 8167,
      "2002": 8168,
      "구분과": 8169,
      "구분하는": 8170,
      "구분했으며": 8171,
      "단계적": 8172,
      "단계인": 8173,
      "기업에서": 8174,
      "흰색의": 8175,
      "통해서": 8176,
      "생산방식": 8177,
      "제품생산": 8178,
      "교육의": 8179,
      "교육에": 8180,
      "파란색입니다": 8181,
      "과정에서의": 8182,
      "기준서": 8183,
      "##ind": 8184,
      "작업과": 8185,
      "작업의": 8186,
      "품질과": 8187,
      "품질을": 8188,
      "구성되어있습니다": 8189,
      "활용이": 8190,
      "활용할": 8191,
      "매출채권": 8192,
      "계산의": 8193,
      "계산은": 8194,
      "계산되어": 8195,
      "계산합니다": 8196,
      "계산되며": 8197,
      "조직과": 8198,
      "조직을": 8199,
      "운영이": 8200,
      "##원가는": 8201,
      "개발은": 8202,
      "구조가": 8203,
      "증가시켜": 8204,
      "증가함에": 8205,
      "고객지향": 8206,
      "변화는": 8207,
      "판매는": 8208,
      "판매하는": 8209,
      "판매물류": 8210,
      "판매관리비": 8211,
      "##tiv": 8212,
      "필요성에": 8213,
      "필요하다고": 8214,
      "경영을": 8215,
      "설계변경": 8216,
      "시장이": 8217,
      "설정할": 8218,
      "가치창조": 8219,
      "기술의": 8220,
      "효과에": 8221,
      "표준의": 8222,
      "적용할": 8223,
      "적용하는": 8224,
      "적용됩니다": 8225,
      "중요합니다": 8226,
      "중요하며": 8227,
      "제공이": 8228,
      "제공을": 8229,
      "부품비": 8230,
      "표현했습니다": 8231,
      "투자비율": 8232,
      "대상은": 8233,
      "문제로": 8234,
      "진행할": 8235,
      "진행하고": 8236,
      "물류비절감": 8237,
      "가능합니다": 8238,
      "가능성과": 8239,
      "%)’,": 8240,
      "산출방식": 8241,
      "유지하기": 8242,
      "흐름이": 8243,
      "결과의": 8244,
      "수행하기": 8245,
      "그림입니다": 8246,
      "1995년": 8247,
      "이루어질": 8248,
      "Ind": 8249,
      "되어야": 8250,
      "테이블과": 8251,
      "데이터베": 8252,
      "고려하는": 8253,
      "체계적": 8254,
      "정의에": 8255,
      "수익과": 8256,
      "절차와": 8257,
      "절차가": 8258,
      "문구를": 8259,
      "ITS": 8260,
      "실제로": 8261,
      "##ree": 8262,
      "##rease": 8263,
      "재무목표는": 8264,
      "전문화": 8265,
      "분류되어": 8266,
      "분류하여": 8267,
      "특허를": 8268,
      "변경된": 8269,
      "하는지": 8270,
      "환경과": 8271,
      "초록색과": 8272,
      "초록색의": 8273,
      "성장률": 8274,
      "가공비는": 8275,
      "부서명": 8276,
      "목적이": 8277,
      "유형과": 8278,
      "효율화": 8279,
      "이상이": 8280,
      "##기준과": 8281,
      "인사관리": 8282,
      "인사제도": 8283,
      "낭비로": 8284,
      "선정하고": 8285,
      "도입을": 8286,
      "파악하는": 8287,
      "불량의": 8288,
      "영역과": 8289,
      "한국전력": 8290,
      "수준과": 8291,
      "도형과": 8292,
      "지역의": 8293,
      "안내하는": 8294,
      "실패코스트": 8295,
      "질문들을": 8296,
      "미국에서": 8297,
      "원인이": 8298,
      "강화하고": 8299,
      "간접비": 8300,
      "##사업자": 8301,
      "요인과": 8302,
      "##자와의": 8303,
      "일부로": 8304,
      "측정하는": 8305,
      "능력이": 8306,
      "상세한": 8307,
      "상세하게": 8308,
      "임금의": 8309,
      "임금수준": 8310,
      "해결을": 8311,
      "해결책": 8312,
      "산정하는": 8313,
      "화면이": 8314,
      "화면으로": 8315,
      "자기개발": 8316,
      "자기계발": 8317,
      "##제품의": 8318,
      "방향성을": 8319,
      "예측의": 8320,
      "창의역량": 8321,
      "모델의": 8322,
      "상태로": 8323,
      "Increase": 8324,
      "12월까지의": 8325,
      "이유로": 8326,
      "Targeting": 8327,
      "##urn": 8328,
      "Enter": 8329,
      "창출하는": 8330,
      "견적원가": 8331,
      "대표적인": 8332,
      "깔끔하고": 8333,
      "예방코스트": 8334,
      "08년도": 8335,
      "아이디어의": 8336,
      "##amb": 8337,
      "최적의": 8338,
      "점유율이": 8339,
      "업무내용으로": 8340,
      "증대를": 8341,
      "기여성과": 8342,
      "인물은": 8343,
      "평가항목과": 8344,
      "##ership": 8345,
      "세금을": 8346,
      "제조경비의": 8347,
      "곡선을": 8348,
      "퇴직예정": 8349,
      "막대그래프로": 8350,
      "분위기": 8351,
      "특별한": 8352,
      "정기적인": 8353,
      "참가자": 8354,
      "2009년의": 8355,
      "않았습니다": 8356,
      "이자비용": 8357,
      "파견사업": 8358,
      "파견근로": 8359,
      "보유하고": 8360,
      "##ume": 8361,
      "조업도": 8362,
      "현대적인": 8363,
      "강사료": 8364,
      "워크숍": 8365,
      "음영이": 8366,
      "##STEM": 8367,
      "1회당": 8368,
      "담겨져": 8369,
      "전통적인": 8370,
      "바닥은": 8371,
      "매출총이익은": 8372,
      "삼성전자": 8373,
      "운전자본": 8374,
      "그러나": 8375,
      "표정을": 8376,
      "##ctivity": 8377,
      "Loss": 8378,
      "GE의": 8379,
      "둘러싼": 8380,
      "보수적": 8381,
      "Competency": 8382,
      "파트너": 8383,
      "BEXCO": 8384,
      "시사하고": 8385,
      "##velop": 8386,
      "CSP": 8387,
      "##ource": 8388,
      "알려주고": 8389,
      "전부원가계산": 8390,
      "정치적": 8391,
      "캠페인": 8392,
      "나이팅게": 8393,
      "신념을": 8394,
      "청구서": 8395,
      "키워드": 8396,
      "교훈을": 8397,
      "불합격": 8398,
      "Develop": 8399,
      "시행시기": 8400,
      "Delivery": 8401,
      "이야기를": 8402,
      "정미시간": 8403,
      "동영상": 8404,
      "부드러운": 8405,
      "##스팅의": 8406,
      "Purpose": 8407,
      "과도한": 8408,
      "신입사원": 8409,
      "기업정보화": 8410,
      "Analysis": 8411,
      "다이아몬드": 8412,
      "저렴한": 8413,
      "지게차": 8414,
      "사업타당성": 8415,
      "변화선도": 8416,
      "SYSTEM": 8417,
      "Volume": 8418,
      "납세의무": 8419,
      "반드시": 8420,
      "에듀페어": 8421,
      "원부자재": 8422,
      "카운슬링": 8423,
      "카탈로그": 8424,
      "프랜차이즈": 8425,
      "플로우": 8426,
      "피스톤": 8427,
      "09": 8428,
      "02": 8429,
      "1개": 8430,
      "3대": 8431,
      "5단계로": 8432,
      "62": 8433,
      "79": 8434,
      "700": 8435,
      "85": 8436,
      "94": 8437,
      "91": 8438,
      "Ar": 8439,
      "AP": 8440,
      "Ac": 8441,
      "B2": 8442,
      "CCT": 8443,
      "DR": 8444,
      "DU": 8445,
      "DDR": 8446,
      "EA": 8447,
      "GDP": 8448,
      "How": 8449,
      "It": 8450,
      "Line": 8451,
      "Net": 8452,
      "Pe": 8453,
      "PA": 8454,
      "Pas": 8455,
      "PJT": 8456,
      "ROS": 8457,
      "Rate": 8458,
      "RIMM": 8459,
      "So": 8460,
      "Tr": 8461,
      "TA": 8462,
      "Tail": 8463,
      "Wine": 8464,
      "Yel": 8465,
      "bu": 8466,
      "or": 8467,
      "st": 8468,
      "가이": 8469,
      "가스": 8470,
      "가설": 8471,
      "가질": 8472,
      "각자": 8473,
      "값의": 8474,
      "개수": 8475,
      "건조": 8476,
      "걸쳐": 8477,
      "경력을": 8478,
      "계속": 8479,
      "계속성": 8480,
      "고가": 8481,
      "고품질": 8482,
      "공감": 8483,
      "규제": 8484,
      "글자가": 8485,
      "급증": 8486,
      "기자": 8487,
      "날짜": 8488,
      "냉장": 8489,
      "니즈": 8490,
      "대처": 8491,
      "대외": 8492,
      "대안": 8493,
      "대량": 8494,
      "대기의": 8495,
      "도시": 8496,
      "도해": 8497,
      "동의": 8498,
      "동그": 8499,
      "되지": 8500,
      "되며": 8501,
      "두께": 8502,
      "레이": 8503,
      "레저": 8504,
      "리츠": 8505,
      "말에는": 8506,
      "매장": 8507,
      "매트릭": 8508,
      "미리": 8509,
      "미소를": 8510,
      "바인": 8511,
      "배려": 8512,
      "백분": 8513,
      "범례": 8514,
      "벗어나": 8515,
      "벽에는": 8516,
      "병원의": 8517,
      "보전": 8518,
      "보람": 8519,
      "본격": 8520,
      "볼드": 8521,
      "부재": 8522,
      "부정적인": 8523,
      "불균": 8524,
      "블랙": 8525,
      "비메": 8526,
      "비효율": 8527,
      "빈도": 8528,
      "사채": 8529,
      "산식은": 8530,
      "살아": 8531,
      "삶의": 8532,
      "새롭게": 8533,
      "색의": 8534,
      "색을": 8535,
      "서버": 8536,
      "서울": 8537,
      "섞인": 8538,
      "선과": 8539,
      "선별": 8540,
      "선물": 8541,
      "세미": 8542,
      "소매": 8543,
      "속에서": 8544,
      "수수료": 8545,
      "숙련": 8546,
      "순회": 8547,
      "숫자를": 8548,
      "습관": 8549,
      "싶은": 8550,
      "않으면": 8551,
      "약에": 8552,
      "양품": 8553,
      "언어": 8554,
      "여자": 8555,
      "연락": 8556,
      "열처리": 8557,
      "옆에": 8558,
      "옆에는": 8559,
      "예로": 8560,
      "예술": 8561,
      "오전": 8562,
      "오후": 8563,
      "오픈": 8564,
      "요망": 8565,
      "월평균": 8566,
      "위반": 8567,
      "위주": 8568,
      "위기를": 8569,
      "위기의": 8570,
      "음성": 8571,
      "이란": 8572,
      "인구": 8573,
      "입점": 8574,
      "있으면": 8575,
      "잡지": 8576,
      "장치를": 8577,
      "재취": 8578,
      "적게": 8579,
      "적응": 8580,
      "전과": 8581,
      "전쟁": 8582,
      "전수": 8583,
      "전류": 8584,
      "전파": 8585,
      "제한": 8586,
      "졸업": 8587,
      "종결": 8588,
      "주장": 8589,
      "중점을": 8590,
      "지금": 8591,
      "지하": 8592,
      "차례": 8593,
      "차원": 8594,
      "창립": 8595,
      "찾기": 8596,
      "체결": 8597,
      "출입": 8598,
      "칸으로": 8599,
      "캘린더": 8600,
      "크며": 8601,
      "키패": 8602,
      "타인": 8603,
      "태어": 8604,
      "토대로": 8605,
      "통일": 8606,
      "팀이": 8607,
      "파괴": 8608,
      "포털": 8609,
      "표에서": 8610,
      "합지": 8611,
      "해소": 8612,
      "향하는": 8613,
      "화물": 8614,
      "확충": 8615,
      "확장의": 8616,
      "효용": 8617,
      "##7억": 8618,
      "##시점": 8619,
      "##는지": 8620,
      "##ear": 8621,
      "##ok": 8622,
      "##사용": 8623,
      "##이너": 8624,
      "##열에는": 8625,
      "##원화": 8626,
      "##조립": 8627,
      "##급은": 8628,
      "##금과": 8629,
      "##입을": 8630,
      "##되거나": 8631,
      "##화하는": 8632,
      "##무늬": 8633,
      "##신고": 8634,
      "##지먼트": 8635,
      "##인식": 8636,
      "##보유": 8637,
      "##스럽": 8638,
      "##스쿨": 8639,
      "##0만": 8640,
      "##전기": 8641,
      "##GE": 8642,
      "##가락": 8643,
      "##리아": 8644,
      "##리카": 8645,
      "##치에": 8646,
      "##치가": 8647,
      "##부의": 8648,
      "##uation": 8649,
      "##6억": 8650,
      "##제도의": 8651,
      "##품의": 8652,
      "##문서": 8653,
      "##년도는": 8654,
      "##AGE": 8655,
      "##분에서": 8656,
      "##료는": 8657,
      "##세에": 8658,
      "##work": 8659,
      "##상거래": 8660,
      "##단을": 8661,
      "##구가": 8662,
      "##해석": 8663,
      "##yn": 8664,
      "##수집": 8665,
      "##차가": 8666,
      "##생이": 8667,
      "##확보": 8668,
      "##미널": 8669,
      "##공통": 8670,
      "##ption": 8671,
      "##15": 8672,
      "##ft": 8673,
      "##fession": 8674,
      "##cing": 8675,
      "##주도": 8676,
      "##작성": 8677,
      "##표입니다": 8678,
      "##순서": 8679,
      "##순위를": 8680,
      "##있다": 8681,
      "##학교": 8682,
      "##드라마": 8683,
      "##물과": 8684,
      "##que": 8685,
      "##람회의": 8686,
      "##패코스트": 8687,
      "##연계": 8688,
      "##FF": 8689,
      "##청소": 8690,
      "##변화": 8691,
      "##추지": 8692,
      "##추진": 8693,
      "##**": 8694,
      "##으로의": 8695,
      "설명회": 8696,
      "설명입니다": 8697,
      "내용도": 8698,
      "내용년수": 8699,
      "강조가": 8700,
      "항목들에": 8701,
      "포함되는": 8702,
      "구성하여": 8703,
      "2001": 8704,
      "20010": 8705,
      "목표설정": 8706,
      "구분하였으며": 8707,
      "사용량": 8708,
      "사용하며": 8709,
      "사용하였으며": 8710,
      "제목폰트": 8711,
      "기업에": 8712,
      "기업들의": 8713,
      "흰색을": 8714,
      "전략수립": 8715,
      "계획서": 8716,
      "요소들은": 8717,
      "작성요령": 8718,
      "제품개발": 8719,
      "제품전략": 8720,
      "교육대상": 8721,
      "개선하는": 8722,
      "분석하며": 8723,
      "작업실": 8724,
      "품질이": 8725,
      "문서에서": 8726,
      "폰트의": 8727,
      "활용에": 8728,
      "활용을": 8729,
      "활용될": 8730,
      "계산이": 8731,
      "계산하여": 8732,
      "그래프에": 8733,
      "조직에서": 8734,
      "운영하며": 8735,
      "운영되며": 8736,
      "개발의": 8737,
      "구조적": 8738,
      "구조조정": 8739,
      "증가와": 8740,
      "고객과": 8741,
      "활동으로": 8742,
      "방식도": 8743,
      "##ens": 8744,
      "표시가": 8745,
      "표시하여": 8746,
      "노란색입니다": 8747,
      "필요가": 8748,
      "경영실적": 8749,
      "시장에서의": 8750,
      "설정하며": 8751,
      "서비스와": 8752,
      "기술지원": 8753,
      "핵심적인": 8754,
      "성과의": 8755,
      "성과가": 8756,
      "적용되었습니다": 8757,
      "중요하다는": 8758,
      "기능에": 8759,
      "표현되었습니다": 8760,
      "##되는지를": 8761,
      "추진하는": 8762,
      "##orld": 8763,
      "제안은": 8764,
      "이미지에서는": 8765,
      "대상의": 8766,
      "대상부품": 8767,
      "문제와": 8768,
      "절감의": 8769,
      "절감하는": 8770,
      "시스템에": 8771,
      "시스템은": 8772,
      "##ary": 8773,
      "가능하도록": 8774,
      "경우에": 8775,
      "경우가": 8776,
      "산출합니다": 8777,
      "검정색이며": 8778,
      "회사와": 8779,
      "달성도": 8780,
      "직무를": 8781,
      "흐름도": 8782,
      "결과는": 8783,
      "색상이며": 8784,
      "수행을": 8785,
      "수행할": 8786,
      "일정하게": 8787,
      "000g": 8788,
      "기본역량": 8789,
      "가격우위": 8790,
      "##가치는": 8791,
      "테이블이": 8792,
      "테이블을": 8793,
      "소개를": 8794,
      "결정합니다": 8795,
      "구매자의": 8796,
      "기록하는": 8797,
      "마케팅을": 8798,
      "지급수수료": 8799,
      "지급임차료": 8800,
      "12개월": 8801,
      "내부에는": 8802,
      "##항목을": 8803,
      "구축과": 8804,
      "연도가": 8805,
      "방안에": 8806,
      "방안으로는": 8807,
      "정의는": 8808,
      "코스트의": 8809,
      "직접노무비": 8810,
      "##ental": 8811,
      "절차적": 8812,
      "사진으로": 8813,
      "재무상태": 8814,
      "전문성": 8815,
      "전문인력": 8816,
      "분류하고": 8817,
      "보고하는": 8818,
      "변경에": 8819,
      "차트를": 8820,
      "환경의": 8821,
      "환경적": 8822,
      "심사원": 8823,
      "초록색으로": 8824,
      "확보와": 8825,
      "개인적": 8826,
      "의미하고": 8827,
      "담당하고": 8828,
      "협상에서": 8829,
      "녹색입니다": 8830,
      "기타로": 8831,
      "기계는": 8832,
      "이상으로": 8833,
      "##기준을": 8834,
      "인사전략": 8835,
      "인사고과": 8836,
      "2001년의": 8837,
      "적혀있으며": 8838,
      "영역이": 8839,
      "영역에는": 8840,
      "시작해": 8841,
      "직급이": 8842,
      "##목표와": 8843,
      "장비가": 8844,
      "장비를": 8845,
      "공급업": 8846,
      "비고객": 8847,
      "원칙은": 8848,
      "요구사항": 8849,
      "필요한지": 8850,
      "관계에": 8851,
      "관계가": 8852,
      "관계없이": 8853,
      "인력은": 8854,
      "##전략은": 8855,
      "##검사를": 8856,
      "분야에": 8857,
      "위치를": 8858,
      "원인과": 8859,
      "포인트는": 8860,
      "포인트가": 8861,
      "나타나며": 8862,
      "##사업자는": 8863,
      "##경영의": 8864,
      "지표의": 8865,
      "표기하고": 8866,
      "경제적인": 8867,
      "반영됩니다": 8868,
      "책임과": 8869,
      "예상되는": 8870,
      "요약하여": 8871,
      "범위는": 8872,
      "정도의": 8873,
      "제조원가의": 8874,
      "제조원가를": 8875,
      "방향과": 8876,
      "##omest": 8877,
      "##교육과": 8878,
      "선택의": 8879,
      "개별원가계산": 8880,
      "규모의": 8881,
      "푸른색으로": 8882,
      "감가상각비를": 8883,
      "근로자는": 8884,
      "확대와": 8885,
      "2004년에는": 8886,
      "만족을": 8887,
      "부족으로": 8888,
      "적절화": 8889,
      "적절성": 8890,
      "PI방법론": 8891,
      "##old": 8892,
      "##olution": 8893,
      "언급되고": 8894,
      "사고와": 8895,
      "배분하는": 8896,
      "다섯가지": 8897,
      "집중할": 8898,
      "##효과를": 8899,
      "##작업시간": 8900,
      "번호를": 8901,
      "목록이": 8902,
      "목록형으로": 8903,
      "인재를": 8904,
      "참여하는": 8905,
      "과제를": 8906,
      "의사소통에": 8907,
      "사무실": 8908,
      "##자본비용": 8909,
      "수집과": 8910,
      "시험기": 8911,
      "노력과": 8912,
      "다음으로": 8913,
      "업무내용이": 8914,
      "2006년에는": 8915,
      "기여하는": 8916,
      "세로축에": 8917,
      "구분선을": 8918,
      "규정에": 8919,
      "웹사이트의": 8920,
      "갈색의": 8921,
      "세금과": 8922,
      "않는다": 8923,
      "산출물로는": 8924,
      "수선비를": 8925,
      "##개선을": 8926,
      "300명": 8927,
      "현상파악": 8928,
      "##수준을": 8929,
      "사전에": 8930,
      "분장표를": 8931,
      "분장표이며": 8932,
      "응답자의": 8933,
      "LG의": 8934,
      "배경색을": 8935,
      "영향력": 8936,
      "자체의": 8937,
      "반복되는": 8938,
      "IRR은": 8939,
      "Position": 8940,
      "잠재적": 8941,
      "유도하는": 8942,
      "천장에": 8943,
      "음영으로": 8944,
      "1997년부터": 8945,
      "용이하도록": 8946,
      "회원수": 8947,
      "소제목이": 8948,
      "취득세": 8949,
      "균형을": 8950,
      "도전정신": 8951,
      "제휴를": 8952,
      "##ople": 8953,
      "##ull": 8954,
      "유동자산": 8955,
      "수요예측의": 8956,
      "95C": 8957,
      "오븐기의": 8958,
      "최초의": 8959,
      "타겟팅": 8960,
      "본부장": 8961,
      "권한을": 8962,
      "생산관리팀의": 8963,
      "Output": 8964,
      "Respon": 8965,
      "로열티를": 8966,
      "간결하게": 8967,
      "상각비": 8968,
      "여유시간": 8969,
      "TV홈쇼핑의": 8970,
      "시가총액을": 8971,
      "줄이기": 8972,
      "줄어들": 8973,
      "첨부되어": 8974,
      "충분히": 8975,
      "바람직한": 8976,
      "Benefit": 8977,
      "도움이": 8978,
      "움직임": 8979,
      "Discount": 8980,
      "동향과": 8981,
      "표면처리": 8982,
      "가리키고": 8983,
      "부착되어": 8984,
      "생애와": 8985,
      "추진절차에": 8986,
      "896": 8987,
      "Measures": 8988,
      "프리스쿨": 8989,
      "MBC": 8990,
      "Operation": 8991,
      "경향이": 8992,
      "오렌지색": 8993,
      "Type": 8994,
      "연출하고": 8995,
      "##IZE": 8996,
      "교통인프라박람회의": 8997,
      "Design": 8998,
      "갖추어야": 8999
    }
  }
}